▁the 1
▁to 1
▁you 1
' 1
▁and 1
▁a 1
s 1
▁it 1
▁that 1
▁i 1
▁of 1
▁is 1
▁in 1
▁your 1
▁going 1
▁we 1
▁this 1
▁so 1
re 1
▁on 1
▁can 1
▁have 1
ing 1
▁with 1
▁be 1
▁want 1
▁are 1
▁just 1
▁for 1
▁do 1
t 1
▁ 1
▁or 1
f 1
▁up 1
m 1
▁like 1
▁one 1
▁get 1
▁they 1
▁what 1
▁there 1
▁now 1
▁out 1
▁as 1
▁little 1
▁make 1
▁here 1
▁go 1
▁then 1
▁but 1
▁not 1
▁about 1
▁when 1
▁all 1
ed 1
▁my 1
▁how 1
▁will 1
▁back 1
▁at 1
▁use 1
▁some 1
▁right 1
▁really 1
▁don 1
ll 1
▁down 1
very 1
▁because 1
▁way 1
▁our 1
▁from 1
▁take 1
▁more 1
▁put 1
▁an 1
ve 1
▁good 1
▁see 1
▁them 1
▁into 1
▁sure 1
y 1
▁also 1
▁bit 1
▁need 1
▁would 1
▁know 1
▁lot 1
ly 1
d 1
▁over 1
▁these 1
▁two 1
▁off 1
▁kind 1
▁other 1
▁where 1
▁thing 1
▁which 1
▁time 1
▁look 1
▁he 1
▁hair 1
▁keep 1
e 1
▁first 1
▁has 1
▁any 1
▁side 1
▁let 1
▁actually 1
▁again 1
▁got 1
▁come 1
▁start 1
▁nice 1
▁different 1
▁around 1
▁her 1
▁ball 1
▁things 1
▁through 1
▁by 1
▁much 1
▁three 1
▁people 1
▁well 1
▁their 1
▁talk 1
▁give 1
▁m 1
▁hand 1
▁water 1
▁something 1
▁important 1
▁those 1
▁work 1
n 1
▁top 1
▁show 1
▁next 1
▁step 1
▁even 1
▁most 1
▁once 1
▁using 1
▁me 1
er 1
ight 1
▁doing 1
▁find 1
▁same 1
▁okay 1
▁body 1
▁another 1
▁she 1
▁hi 1
▁alway 1
▁pull 1
▁too 1
if 1
▁left 1
▁could 1
▁line 1
▁try 1
▁say 1
▁before 1
▁color 1
▁great 1
▁part 1
▁place 1
▁turn 1
▁cut 1
▁was 1
▁than 1
▁help 1
▁add 1
▁ahead 1
al 1
▁think 1
▁no 1
▁hold 1
▁should 1
▁today 1
▁type 1
▁head 1
▁pretty 1
l 1
▁may 1
▁skin 1
▁bring 1
▁forward 1
▁front 1
▁end 1
▁maybe 1
▁foot 1
▁en 1
▁four 1
▁his 1
▁set 1
▁open 1
ble 1
▁move 1
▁point 1
▁long 1
▁doesn 1
▁piece 1
▁many 1
▁called 1
▁getting 1
▁done 1
▁inside 1
▁every 1
▁feel 1
▁big 1
▁together 1
▁feet 1
▁only 1
▁tell 1
▁hands 1
▁name 1
▁straight 1
▁him 1
▁still 1
▁best 1
▁sometimes 1
▁does 1
▁push 1
▁paper 1
▁dog 1
▁each 1
▁bottom 1
▁been 1
▁leg 1
▁area 1
▁buy 1
▁five 1
▁small 1
▁remember 1
▁basically 1
▁oil 1
▁play 1
▁after 1
r 1
▁used 1
▁usually 1
▁probably 1
▁away 1
▁light 1
▁who 1
▁car 1
▁glass 1
▁face 1
▁coming 1
▁half 1
▁clean 1
▁making 1
▁goes 1
▁white 1
▁yourself 1
▁comes 1
▁new 1
▁lift 1
▁times 1
▁high 1
▁throw 1
▁person 1
▁looking 1
▁brush 1
es 1
▁talking 1
▁had 1
▁day 1
▁hit 1
▁while 1
▁fish 1
▁anything 1
▁position 1
▁easy 1
▁ready 1
▁course 1
▁everything 1
▁clip 1
▁better 1
▁enough 1
▁made 1
▁tea 1
▁hard 1
▁size 1
▁between 1
▁under 1
▁real 1
▁basic 1
▁working 1
▁practice 1
▁second 1
▁call 1
▁number 1
▁being 1
▁create 1
▁six 1
▁dry 1
▁kick 1
▁1 1
▁couple 1
▁why 1
▁flat 1
▁both 1
▁home 1
▁stay 1
▁eye 1
▁run 1
▁jump 1
▁last 1
▁us 1
▁base 1
▁close 1
▁am 1
▁either 1
▁stick 1
o 1
▁already 1
▁trying 1
▁cause 1
▁whatever 1
▁roll 1
▁paint 1
▁2 1
on 1
▁draw 1
▁center 1
▁order 1
▁few 1
a 1
▁pick 1
▁room 1
▁ok 1
▁looks 1
▁string 1
▁wire 1
▁sort 1
▁were 1
▁arms 1
▁whole 1
▁ground 1
▁board 1
▁touch 1
st 1
▁fun 1
▁low 1
▁shot 1
▁case 1
▁outside 1
▁far 1
▁horse 1
▁did 1
▁apply 1
▁means 1
▁unti 1
▁wax 1
▁check 1
▁middle 1
▁s 1
▁store 1
▁example 1
▁game 1
▁drop 1
▁alright 1
▁legs 1
▁pass 1
▁black 1
▁green 1
▁wood 1
▁shoulder 1
▁own 1
▁chest 1
▁edge 1
▁learn 1
▁particular 1
▁k 1
▁neck 1
▁ask 1
▁arm 1
▁stretch 1
▁break 1
▁milk 1
▁tip 1
▁un 1
▁knees 1
▁underneath 1
▁air 1
▁moving 1
▁comfortable 1
▁become 1
▁3 1
▁simple 1
▁someone 1
▁types 1
▁process 1
▁full 1
▁sit 1
▁o 1
▁re 1
▁floor 1
▁natural 1
▁plant 1
▁fire 1
▁lower 1
▁fine 1
▁obviously 1
having 1
▁grab 1
▁simpl 1
▁won 1
▁leave 1
▁makes 1
▁old 1
▁bag 1
▁pressure 1
▁quick 1
▁minutes 1
▁card 1
▁stop 1
▁said 1
▁putting 1
▁cat 1
▁tak 1
▁change 1
▁wear 1
▁control 1
▁iron 1
▁hip 1
▁notice 1
▁shoulders 1
▁mean 1
▁almo 1
▁red 1
▁allow 1
▁love 1
▁ways 1
▁knee 1
▁door 1
never 1
▁pieces 1
▁segment 1
▁without 1
▁shape 1
ic 1
▁hot 1
▁stuff 1
▁reason 1
▁sand 1
▁hole 1
▁colors 1
▁press 1
▁choose 1
▁tight 1
▁remove 1
▁regular 1
▁t 1
▁design 1
▁weight 1
▁ten 1
▁behind 1
▁coat 1
▁space 1
▁wall 1
▁cup 1
▁heat 1
▁definitely 1
▁bat 1
▁onto 1
▁rest 1
▁proper 1
▁house 1
▁cross 1
▁exact 1
▁across 1
▁table 1
▁exhale 1
▁level 1
▁amount 1
▁such 1
▁twist 1
▁along 1
▁inch 1
▁cover 1
▁wheel 1
ther 1
▁4 1
▁hook 1
▁warm 1
able 1
▁angle 1
▁keeping 1
▁speed 1
▁seven 1
▁catch 1
▁quit 1
▁switch 1
▁idea 1
▁guy 1
▁certain 1
▁whe 1
▁nail 1
▁years 1
ion 1
▁pot 1
▁walk 1
▁glue 1
▁easier 1
▁longer 1
▁section 1
▁cast 1
▁surface 1
▁style 1
▁track 1
▁especially 1
▁lines 1
▁stand 1
▁direction 1
▁product 1
▁key 1
▁system 1
▁book 1
▁beautiful 1
▁image 1
▁box 1
est 1
▁care 1
or 1
▁tool 1
▁print 1
▁large 1
▁sugar 1
▁fingers 1
▁short 1
▁inhale 1
▁spin 1
▁e 1
▁watch 1
▁tail 1
▁happens 1
▁boat 1
▁clear 1
▁block 1
▁running 1
▁food 1
ation 1
▁eyes 1
▁less 1
▁often 1
▁hoop 1
▁rope 1
▁mind 1
▁depending 1
▁tape 1
▁exercise 1
▁clay 1
▁life 1
▁extra 1
▁toward 1
▁lay 1
▁child 1
▁free 1
▁wind 1
▁cards 1
▁eight 1
▁cool 1
▁else 1
▁blue 1
▁vehicle 1
▁somebody 1
▁cutting 1
▁itself 1
▁massage 1
▁fill 1
▁power 1
▁fast 1
▁reach 1
▁belt 1
ever 1
▁fabric 1
▁plastic 1
▁slide 1
▁single 1
▁bad 1
▁general 1
▁fit 1
▁tend 1
▁job 1
▁helps 1
p 1
▁mix 1
en 1
▁pin 1
▁corner 1
▁thumb 1
▁button 1
▁possible 1
▁tire 1
▁smooth 1
▁frame 1
▁soft 1
▁g 1
▁finish 1
▁de 1
▁build 1
▁ear 1
▁hips 1
▁careful 1
▁jack 1
▁money 1
▁teeth 1
▁gets 1
▁seat 1
▁5 1
▁double 1
▁collar 1
▁root 1
▁bend 1
▁against 1
▁guys 1
c 1
▁bird 1
▁though 1
▁forth 1
▁powder 1
▁b 1
▁follow 1
▁completely 1
▁properly 1
▁ever 1
▁match 1
▁slightly 1
▁test 1
▁lip 1
▁business 1
▁least 1
▁nothing 1
▁p 1
▁night 1
▁smaller 1
▁started 1
▁golf 1
▁dark 1
▁swing 1
▁club 1
▁problem 1
▁matter 1
▁later 1
el 1
▁pay 1
▁fold 1
h 1
▁begin 1
▁starting 1
▁mirror 1
▁release 1
▁works 1
▁measure 1
▁school 1
▁since 1
▁difference 1
▁comb 1
▁form 1
ness 1
in 1
▁c 1
▁pose 1
▁picture 1
▁movement 1
▁hundred 1
▁sever 1
▁motion 1
▁customer 1
▁recommend 1
▁slow 1
▁ring 1
▁length 1
▁instead 1
▁local 1
ty 1
less 1
▁muscles 1
▁pour 1
▁curl 1
▁consider 1
▁wine 1
▁drink 1
▁coffee 1
▁8 1
▁normal 1
an 1
▁pop 1
▁blanket 1
▁bar 1
▁computer 1
▁drill 1
▁edges 1
▁pair 1
▁man 1
▁rock 1
▁pattern 1
▁wash 1
▁strong 1
▁perfect 1
▁fall 1
▁common 1
▁main 1
▁focus 1
▁painting 1
▁wet 1
▁slowly 1
▁wrist 1
▁easily 1
▁typical 1
▁oh 1
▁tooth 1
▁sides 1
▁spine 1
▁d 1
▁third 1
▁professional 1
▁continue 1
▁teach 1
▁playing 1
▁technique 1
▁punch 1
▁finger 1
▁balance 1
▁deal 1
▁heavy 1
▁knife 1
▁ink 1
▁parts 1
wards 1
▁enjoy 1
ity 1
▁wrap 1
▁everybody 1
▁sitting 1
▁larger 1
▁fact 1
▁camera 1
▁eat 1
▁lips 1
▁post 1
▁wide 1
▁starts 1
▁hear 1
▁training 1
▁heart 1
▁burn 1
▁areas 1
▁loop 1
▁twenty 1
▁chicken 1
▁attention 1
▁products 1
▁entire 1
▁score 1
▁brown 1
▁inches 1
▁deep 1
▁read 1
▁group 1
▁circle 1
▁found 1
▁information 1
▁wrong 1
▁yellow 1
▁spray 1
▁didn 1
▁round 1
ies 1
▁series 1
▁chocolate 1
▁garden 1
▁dur 1
▁square 1
▁happen 1
▁spot 1
▁rub 1
▁word 1
▁handle 1
▁chain 1
▁safety 1
▁nose 1
▁takes 1
▁needs 1
ce 1
▁difficult 1
▁orange 1
▁rice 1
▁problems 1
▁steam 1
▁chair 1
▁character 1
▁contact 1
▁yes 1
▁blade 1
▁v 1
▁drawing 1
▁leaves 1
▁battery 1
▁shoot 1
us 1
▁decide 1
▁kids 1
▁sun 1
▁tank 1
▁belly 1
th 1
▁plate 1
▁video 1
▁figure 1
▁demonstrate 1
▁protect 1
▁smell 1
▁filter 1
▁cold 1
▁energy 1
▁fat 1
▁higher 1
▁actual 1
▁cap 1
▁thin 1
▁support 1
▁blood 1
▁field 1
▁mark 1
▁rid 1
▁w 1
▁pre 1
▁days 1
▁elbow 1
▁waist 1
▁world 1
▁plants 1
i 1
▁drive 1
▁sell 1
▁toes 1
▁ice 1
▁grow 1
▁discuss 1
▁treat 1
▁foundation 1
▁rod 1
▁save 1
▁layer 1
▁grip 1
▁guitar 1
▁medium 1
▁further 1
▁towel 1
▁temperature 1
▁party 1
▁7 1
▁similar 1
▁bike 1
▁within 1
▁prevent 1
▁serve 1
▁breath 1
▁tools 1
▁hours 1
▁blend 1
▁children 1
▁10 1
▁trick 1
ur 1
▁service 1
▁showing 1
▁heel 1
▁above 1
▁opposite 1
▁purpose 1
ers 1
▁quickly 1
▁points 1
▁avoid 1
▁snow 1
▁fresh 1
▁gently 1
▁worry 1
▁hitting 1
▁flavor 1
▁players 1
▁flip 1
▁apart 1
▁basket 1
▁family 1
▁yoga 1
▁steel 1
ous 1
▁standing 1
ish 1
▁player 1
▁specific 1
▁anywhere 1
▁everyone 1
▁rather 1
▁turning 1
▁harder 1
g 1
▁mat 1
▁garlic 1
▁words 1
▁film 1
▁faster 1
▁upper 1
▁cloth 1
▁thread 1
▁thinking 1
▁lead 1
▁lean 1
▁lid 1
▁bigger 1
▁experience 1
▁shirt 1
▁stone 1
▁live 1
▁hat 1
▁fluid 1
▁palm 1
▁strap 1
▁land 1
▁art 1
u 1
▁com 1
▁material 1
▁team 1
▁relax 1
▁unit 1
▁sleep 1
▁minute 1
▁loose 1
▁sound 1
▁cream 1
▁website 1
▁raw 1
k 1
▁f 1
▁phone 1
▁mask 1
▁necessarily 1
▁photography 1
▁wanted 1
▁juice 1
▁smoke 1
▁situation 1
▁soon 1
w 1
▁fair 1
▁project 1
▁flash 1
▁mention 1
▁holes 1
ry 1
▁setting 1
▁year 1
▁needle 1
▁thick 1
▁understand 1
▁spend 1
▁interesting 1
▁music 1
▁leather 1
▁load 1
▁bid 1
▁lose 1
▁wave 1
▁core 1
▁toilet 1
▁sign 1
▁mouth 1
▁route 1
▁bucket 1
▁hello 1
▁peel 1
▁butter 1
age 1
▁degree 1
▁flower 1
▁write 1
▁tennis 1
▁click 1
▁self 1
▁saw 1
▁pen 1
giving 1
▁tent 1
▁flowers 1
▁grind 1
▁based 1
▁hang 1
▁bunch 1
▁distance 1
▁pan 1
▁tips 1
▁cleaning 1
▁fac 1
▁machine 1
▁week 1
▁tension 1
▁dance 1
▁foam 1
▁baby 1
▁6 1
▁instance 1
▁ends 1
▁kite 1
▁boom 1
is 1
▁record 1
▁trail 1
▁jeans 1
▁20 1
▁bulb 1
▁dirt 1
▁bone 1
▁stitch 1
▁sharp 1
▁shampoo 1
▁hop 1
▁steps 1
▁gray 1
▁salt 1
▁bra 1
▁gone 1
▁final 1
▁force 1
▁rolling 1
▁shop 1
▁squeeze 1
▁standard 1
▁vodka 1
▁chance 1
▁worth 1
▁beginning 1
▁city 1
▁throughout 1
▁lock 1
▁wearing 1
▁finished 1
▁seen 1
▁deck 1
▁pencil 1
▁return 1
▁skirt 1
▁partner 1
▁guide 1
▁kinds 1
▁select 1
▁correct 1
▁dish 1
▁thirt 1
▁stance 1
▁height 1
▁lighter 1
▁shoes 1
▁dollars 1
▁favorite 1
▁knot 1
▁dead 1
▁pitcher 1
▁map 1
▁opening 1
um 1
▁travel 1
▁carry 1
▁develop 1
▁books 1
▁detail 1
▁bak 1
▁client 1
▁brake 1
▁window 1
▁option 1
▁drain 1
▁fake 1
▁gift 1
▁credit 1
ter 1
▁men 1
▁went 1
▁scissors 1
ia 1
▁win 1
▁plan 1
▁safe 1
▁stores 1
▁posture 1
▁account 1
▁coconut 1
▁dribble 1
▁earlier 1
ie 1
▁cook 1
▁depends 1
▁blow 1
▁stain 1
▁texture 1
▁yeah 1
▁rubber 1
▁wonderful 1
▁fret 1
▁tie 1
▁market 1
wise 1
▁trim 1
▁l 1
▁degrees 1
▁believe 1
▁fashion 1
▁extend 1
▁slip 1
▁attack 1
▁count 1
▁building 1
▁women 1
▁defense 1
▁happy 1
▁band 1
▁climbing 1
▁tone 1
▁pack 1
▁pro 1
as 1
▁learning 1
▁flow 1
▁riding 1
▁special 1
▁states 1
▁personal 1
▁friends 1
▁major 1
▁bounce 1
▁near 1
▁portion 1
▁jab 1
▁maintain 1
▁baseball 1
▁normally 1
▁bent 1
▁dip 1
▁15 1
▁separate 1
▁thought 1
▁vari 1
▁adjust 1
▁chose 1
▁moisture 1
▁cheese 1
▁winter 1
▁came 1
▁negative 1
▁screw 1
▁walking 1
▁train 1
not 1
side 1
▁seconds 1
▁star 1
▁says 1
ri 1
▁bowl 1
▁liquid 1
▁microwave 1
▁provide 1
ical 1
▁range 1
▁breathe 1
▁skills 1
▁damage 1
▁sweep 1
▁story 1
▁firm 1
▁anyway 1
▁makeup 1
▁spring 1
▁cake 1
▁places 1
▁letters 1
▁backwards 1
▁mascara 1
▁solid 1
▁available 1
▁slice 1
▁stage 1
▁determine 1
▁terms 1
▁tissue 1
▁bottle 1
▁girl 1
▁elements 1
▁hey 1
▁whenever 1
il 1
▁appropriate 1
▁creating 1
▁equipment 1
▁lemon 1
▁somewhere 1
▁flour 1
▁dollar 1
▁state 1
▁wing 1
▁tuck 1
▁value 1
▁cow 1
▁act 1
▁closer 1
▁stroke 1
▁taste 1
▁rinse 1
▁feels 1
▁breaking 1
▁meet 1
▁tim 1
▁chord 1
▁variety 1
▁litter 1
▁gear 1
▁cord 1
▁race 1
▁extreme 1
▁photographer 1
▁acid 1
▁cable 1
x 1
ping 1
▁treatment 1
▁effect 1
▁question 1
▁vegetable 1
▁throwing 1
▁cooking 1
▁age 1
▁hurt 1
▁model 1
ian 1
▁aren 1
▁audition 1
▁company 1
▁florida 1
▁hopefully 1
▁opponent 1
▁spread 1
▁dust 1
▁sorry 1
▁tractor 1
▁quality 1
▁fix 1
▁patient 1
▁healthy 1
▁gold 1
▁beer 1
▁rat 1
▁method 1
▁clock 1
▁cups 1
▁strings 1
▁onion 1
▁transfer 1
▁handy 1
▁secure 1
▁complete 1
▁taken 1
▁snake 1
▁themselves 1
▁width 1
▁myself 1
▁super 1
▁must 1
▁nicely 1
▁seal 1
▁j 1
▁electric 1
▁shadow 1
▁certainly 1
▁hour 1
▁thank 1
▁tap 1
ok 1
ch 1
▁bright 1
▁suggest 1
▁strength 1
▁built 1
▁shrimp 1
▁master 1
ment 1
▁plus 1
▁feeling 1
▁date 1
▁aware 1
▁sheet 1
▁per 1
▁strike 1
▁fly 1
▁connect 1
▁gloss 1
▁thousand 1
▁soda 1
▁shift 1
▁absolute 1
ting 1
▁straighten 1
▁counter 1
▁relaxed 1
v 1
▁movements 1
▁los 1
▁learned 1
▁explain 1
▁classic 1
▁anti 1
▁expert 1
▁perhaps 1
▁squat 1
▁true 1
▁american 1
▁lengthen 1
▁oppos 1
▁dating 1
▁original 1
▁writing 1
z 1
▁sweet 1
▁pages 1
▁rule 1
▁pad 1
▁strip 1
▁medica 1
▁plane 1
▁dress 1
▁balls 1
▁picking 1
▁condition 1
▁ideas 1
▁mold 1
▁answer 1
▁doctor 1
▁court 1
▁jewelry 1
▁north 1
▁bond 1
▁joe 1
▁bubbles 1
ought 1
▁wipe 1
▁watching 1
▁cleaner 1
ted 1
▁vegetables 1
ld 1
▁aid 1
▁bacon 1
▁yet 1
▁zoom 1
▁tighten 1
ier 1
▁beak 1
▁dealer 1
▁wheels 1
▁owner 1
le 1
▁reduce 1
▁ninet 1
▁direct 1
▁questions 1
▁shower 1
▁guess 1
▁trap 1
▁perform 1
▁essentially 1
▁shut 1
ar 1
▁note 1
▁naturally 1
▁lifting 1
▁rain 1
▁combination 1
▁fan 1
▁closed 1
▁lighting 1
▁wait 1
▁require 1
▁pet 1
▁period 1
▁popular 1
▁canoe 1
▁tall 1
▁quarter 1
▁bed 1
▁meaning 1
▁command 1
▁foods 1
▁created 1
▁pat 1
▁ears 1
▁defender 1
▁stock 1
▁corners 1
▁pitch 1
▁chop 1
▁early 1
▁saying 1
tic 1
▁liner 1
▁muscle 1
▁suit 1
directly 1
ant 1
▁repair 1
▁sha 1
▁shell 1
▁possibl 1
▁flush 1
▁below 1
▁fruit 1
▁portal 1
▁present 1
▁meat 1
▁past 1
▁turns 1
▁dr 1
▁beat 1
▁curly 1
▁mixed 1
inner 1
se 1
▁known 1
▁container 1
▁da 1
▁glove 1
▁lightly 1
▁affect 1
▁health 1
▁effective 1
▁austin 1
▁internet 1
▁supply 1
▁sink 1
▁prefer 1
▁search 1
▁lamp 1
▁h 1
▁scale 1
▁wand 1
▁specifically 1
▁chin 1
▁plug 1
▁oven 1
▁clothes 1
▁beef 1
▁kinda 1
▁tripod 1
▁nine 1
▁guard 1
▁heels 1
te 1
▁finding 1
▁listen 1
▁office 1
▁easies 1
▁laptop 1
▁sense 1
▁pliers 1
▁metal 1
▁outfit 1
▁hope 1
▁late 1
▁paddle 1
▁incorporate 1
▁purchase 1
▁pressing 1
▁mess 1
▁par 1
▁shoe 1
▁tree 1
▁goal 1
▁improv 1
▁target 1
▁napkin 1
▁crease 1
▁forget 1
▁coach 1
▁spots 1
▁tiny 1
ary 1
cause 1
▁30 1
▁action 1
▁ingredients 1
▁beads 1
▁curve 1
▁mixing 1
▁access 1
▁queen 1
▁kitchen 1
▁wedding 1
▁crab 1
▁daily 1
▁grass 1
▁coverage 1
▁protection 1
▁workout 1
▁speaking 1
▁individual 1
ese 1
▁price 1
▁repeat 1
▁ankle 1
▁animal 1
tally 1
▁co 1
▁sections 1
▁attach 1
▁picked 1
▁telling 1
▁corn 1
▁absorb 1
▁silver 1
▁speech 1
▁zone 1
▁neat 1
▁swimming 1
▁percent 1
▁trade 1
▁dice 1
▁nurse 1
▁dial 1
▁printing 1
▁interested 1
▁bacteria 1
id 1
▁tongue 1
▁perfectly 1
▁soil 1
▁tri 1
em 1
▁touching 1
▁page 1
▁letter 1
▁games 1
out 1
▁br 1
b 1
▁moment 1
▁previous 1
▁application 1
▁driving 1
▁acne 1
▁100 1
▁logo 1
▁shake 1
▁pink 1
▁choos 1
▁techniques 1
▁u 1
▁covered 1
▁sew 1
▁hinge 1
▁object 1
▁ounce 1
▁program 1
▁log 1
ging 1
line 1
ver 1
▁engine 1
▁rough 1
▁caffeine 1
▁clamp 1
▁japan 1
▁telescope 1
▁interview 1
▁english 1
▁excess 1
▁please 1
▁bones 1
▁heard 1
▁ride 1
▁net 1
▁environment 1
ten 1
▁extension 1
▁hav 1
▁sizes 1
▁crown 1
▁excellent 1
▁leaf 1
▁pool 1
▁road 1
▁twelve 1
▁lipstick 1
▁al 1
time 1
▁cooked 1
▁spare 1
ul 1
it 1
▁breathing 1
▁months 1
▁boil 1
▁solution 1
▁issue 1
▁topic 1
▁added 1
▁sky 1
▁prepare 1
▁equal 1
▁john 1
▁cheap 1
▁location 1
▁morning 1
▁fence 1
▁path 1
▁river 1
▁options 1
▁covering 1
▁moves 1
▁blocks 1
▁items 1
▁infection 1
▁stress 1
▁colored 1
▁photo 1
▁cotton 1
▁dancing 1
▁pivot 1
▁rhythm 1
▁schedule 1
▁screen 1
▁soccer 1
▁lava 1
▁trouble 1
▁immediately 1
▁lime 1
▁class 1
▁advanced 1
▁fiber 1
▁aside 1
▁circles 1
▁expensive 1
▁mid 1
▁para 1
▁stays 1
▁seeing 1
▁abs 1
▁sea 1
▁benefits 1
▁tricks 1
though 1
▁cell 1
▁keeps 1
▁cute 1
▁scrub 1
▁sauce 1
▁eleven 1
▁pineapple 1
▁hammer 1
▁studio 1
▁york 1
▁row 1
▁brand 1
▁heavier 1
▁familiar 1
▁vest 1
▁produce 1
▁online 1
▁traveling 1
▁numbers 1
▁shapes 1
▁list 1
▁shooting 1
▁rotate 1
to 1
▁term 1
▁strokes 1
▁mechanic 1
▁yard 1
▁ha 1
▁seems 1
▁results 1
▁report 1
▁sticks 1
▁mode 1
▁audience 1
▁beauty 1
▁budget 1
▁racket 1
▁knob 1
▁jacket 1
▁hardware 1
▁braid 1
▁ceiling 1
▁liz 1
▁split 1
▁charm 1
▁involved 1
fore 1
▁basis 1
▁issues 1
▁mud 1
▁fully 1
▁circula 1
▁ste 1
▁dogs 1
▁st 1
▁weights 1
▁feed 1
▁oily 1
▁bracelet 1
▁centered 1
▁cost 1
▁raise 1
▁tab 1
▁contrast 1
▁gentle 1
▁spoon 1
▁stomach 1
▁birthday 1
▁micro 1
▁foil 1
▁fifteen 1
▁paul 1
▁send 1
▁current 1
▁tense 1
▁structure 1
▁primar 1
ate 1
ance 1
▁correctly 1
▁shorter 1
▁diet 1
▁shots 1
▁dropping 1
ful 1
▁pants 1
▁spades 1
▁tear 1
▁occur 1
▁reasons 1
▁install 1
▁clothing 1
▁lights 1
▁reading 1
▁elbows 1
▁mistake 1
▁choice 1
▁chang 1
▁eggs 1
▁nails 1
ock 1
▁afraid 1
▁mixture 1
▁represent 1
▁sponge 1
▁therapy 1
▁permanent 1
▁sliding 1
▁zip 1
▁dangerous 1
▁country 1
▁eventually 1
up 1
▁plen 1
▁bigge 1
▁fifty 1
▁background 1
▁thicker 1
▁pins 1
tract 1
▁attached 1
▁patch 1
▁older 1
▁replace 1
ive 1
een 1
▁speak 1
▁beans 1
▁handed 1
▁kill 1
▁trip 1
▁birds 1
▁nut 1
▁blades 1
▁contract 1
▁street 1
▁teapot 1
▁texas 1
▁research 1
▁volleyball 1
▁tiger 1
▁stuck 1
▁pump 1
▁woman 1
▁strengthen 1
▁golden 1
▁supposed 1
▁reverse 1
▁tune 1
▁mother 1
▁wider 1
▁demo 1
▁hug 1
▁soap 1
▁supplies 1
▁ski 1
▁shine 1
▁students 1
▁boots 1
▁needed 1
▁falling 1
▁given 1
▁engage 1
ally 1
▁bubble 1
▁9 1
▁jumping 1
▁breed 1
▁achieve 1
▁compliment 1
▁espresso 1
▁exist 1
▁expect 1
▁grocer 1
▁necessary 1
▁bathroom 1
▁sick 1
▁accent 1
▁shelf 1
▁garage 1
▁gap 1
▁windows 1
▁waste 1
▁tires 1
▁con 1
▁tough 1
▁fits 1
▁aspect 1
▁40 1
▁patterns 1
▁gloves 1
▁50 1
▁images 1
▁teaching 1
▁essential 1
▁sticking 1
verage 1
▁tomato 1
▁drag 1
▁flex 1
▁decorat 1
▁potato 1
▁mount 1
▁salmon 1
▁triangle 1
▁thermostat 1
▁torso 1
▁gym 1
▁grain 1
▁spinning 1
▁cage 1
ily 1
▁wild 1
▁improve 1
▁soak 1
▁finer 1
▁darker 1
▁dirty 1
▁town 1
set 1
▁sounds 1
▁sports 1
ne 1
▁interest 1
▁glaze 1
▁r 1
▁brew 1
▁washing 1
▁bags 1
▁slight 1
▁rip 1
▁subject 1
▁anymore 1
▁certified 1
▁everywhere 1
▁frisbee 1
▁monologue 1
▁public 1
▁shuffle 1
▁chalk 1
▁welcome 1
▁urine 1
▁champ 1
▁anyone 1
▁voice 1
▁wool 1
▁plain 1
▁thirteen 1
▁45 1
▁cardboard 1
▁gain 1
▁judge 1
▁gossip 1
▁study 1
▁damp 1
▁horses 1
▁deeper 1
▁beach 1
▁pipe 1
▁seam 1
▁extended 1
▁mo 1
▁rounded 1
▁clap 1
▁cu 1
▁paste 1
▁pads 1
▁cats 1
▁increase 1
▁melt 1
op 1
▁friend 1
▁bow 1
▁lin 1
▁device 1
▁aggressive 1
▁aperture 1
▁approach 1
▁forearm 1
▁polish 1
▁sensitive 1
▁narrow 1
▁requirements 1
▁living 1
▁advice 1
▁funny 1
▁everyday 1
▁breast 1
▁chemical 1
▁artist 1
▁controll 1
▁raised 1
▁realize 1
ta 1
▁completed 1
▁catching 1
▁installing 1
▁su 1
▁dryer 1
▁imagine 1
▁toss 1
ho 1
▁drip 1
▁allowed 1
▁passing 1
ha 1
what 1
agne 1
▁hill 1
▁wonder 1
▁insulation 1
▁leash 1
▁license 1
▁transition 1
▁pimples 1
▁visual 1
▁creature 1
▁pillow 1
▁rectangle 1
▁sudden 1
▁wrench 1
▁shark 1
▁harness 1
▁basketball 1
▁captain 1
▁concealer 1
at 1
▁opportunity 1
▁visit 1
▁90 1
▁advantage 1
▁motorcycle 1
▁charge 1
▁relationship 1
▁stepping 1
▁fal 1
▁mail 1
▁sale 1
▁clips 1
▁adult 1
▁twisting 1
ent 1
▁young 1
▁x 1
▁materials 1
▁gi 1
▁pictures 1
▁pi 1
per 1
▁join 1
▁girls 1
▁variations 1
▁plac 1
do 1
▁horizontal 1
▁compani 1
▁defensive 1
▁identify 1
▁olive 1
▁phase 1
▁therapist 1
▁magic 1
▁ensure 1
▁barrel 1
▁alternative 1
▁rim 1
▁gina 1
▁display 1
▁bread 1
▁pinch 1
▁growth 1
▁thickness 1
▁traditional 1
▁realtor 1
▁mine 1
▁bill 1
▁measurement 1
▁egg 1
▁leader 1
▁marker 1
▁quicker 1
▁designer 1
▁snap 1
▁conditioning 1
▁changed 1
▁flavors 1
▁features 1
▁pai 1
▁rate 1
▁grows 1
▁crack 1
▁pain 1
▁drops 1
▁web 1
▁receive 1
▁successful 1
▁aroma 1
▁caught 1
▁challenge 1
▁diamond 1
▁experiment 1
▁google 1
▁lazy 1
▁maintenance 1
▁offense 1
▁pepper 1
▁diagonal 1
▁utiliz 1
▁fist 1
▁angry 1
▁desire 1
▁twice 1
▁literally 1
▁deliver 1
▁fear 1
▁education 1
▁pong 1
▁flame 1
▁ridge 1
▁momentum 1
▁pores 1
▁wagon 1
▁include 1
▁brakes 1
▁helpful 1
▁involve 1
▁indoor 1
▁sleeve 1
▁cue 1
▁bulbs 1
▁fitting 1
▁comic 1
▁rescue 1
▁continu 1
▁directions 1
▁measur 1
▁bottles 1
▁bolts 1
▁marks 1
▁kayak 1
aid 1
▁physical 1
▁non 1
▁finishing 1
▁collect 1
▁dentist 1
▁swim 1
▁rib 1
▁decision 1
▁definition 1
▁leaving 1
▁teaspoon 1
▁television 1
▁potential 1
▁africa 1
▁russell 1
▁rust 1
▁multiple 1
▁connection 1
▁aim 1
sylv 1
▁rear 1
▁address 1
▁code 1
▁overall 1
▁enter 1
▁tube 1
▁useful 1
▁cheer 1
▁result 1
▁rare 1
▁loosen 1
▁stem 1
▁carefully 1
▁fishing 1
▁bu 1
▁flying 1
▁rocks 1
▁dis 1
▁sub 1
▁season 1
land 1
▁accurate 1
▁pie 1
▁except 1
▁south 1
▁flexibility 1
▁practicing 1
▁scream 1
▁videographer 1
▁stroller 1
▁balloon 1
▁forehand 1
▁tilt 1
▁spill 1
▁rise 1
▁bobby 1
▁groove 1
▁mug 1
▁crank 1
▁reel 1
▁henna 1
▁calm 1
▁driver 1
▁gotten 1
▁canvas 1
▁pocket 1
▁candle 1
▁flag 1
▁personally 1
▁bear 1
▁ga 1
▁loops 1
▁cases 1
▁bead 1
▁others 1
▁locked 1
ine 1
▁covers 1
▁ounces 1
▁miss 1
ped 1
▁flowing 1
▁fitt 1
ng 1
▁writ 1
▁ba 1
▁growing 1
▁addition 1
▁clubs 1
▁notes 1
▁names 1
▁lens 1
▁acrylic 1
▁alcohol 1
▁applied 1
▁opinion 1
▁relative 1
▁faith 1
▁robert 1
▁chamber 1
▁ladies 1
▁honey 1
▁hydrating 1
▁index 1
▁craft 1
▁french 1
▁bait 1
▁drum 1
▁constantly 1
▁china 1
▁boy 1
▁clients 1
▁overhead 1
▁copy 1
▁boxes 1
▁vers 1
rs 1
▁cl 1
▁stamp 1
▁bolt 1
▁highlight 1
▁variation 1
▁weak 1
ated 1
ize 1
▁teacher 1
▁tin 1
▁miles 1
▁removed 1
▁straps 1
▁stir 1
▁sticky 1
be 1
▁joints 1
▁steep 1
water 1
▁causes 1
▁shown 1
ton 1
▁prepar 1
▁sparkl 1
▁cuts 1
▁neutral 1
▁cheek 1
▁cockpit 1
▁college 1
▁community 1
▁depth 1
▁prior 1
▁scoop 1
▁steady 1
▁swirl 1
▁nature 1
▁communication 1
▁chew 1
▁stability 1
▁wig 1
▁triple 1
▁rose 1
▁tug 1
▁dinner 1
▁scent 1
▁crazy 1
▁alone 1
▁view 1
▁dig 1
▁choices 1
▁lifted 1
▁fighting 1
▁restaurant 1
▁shade 1
▁pound 1
▁ingredient 1
▁animals 1
▁falls 1
nt 1
▁spa 1
bing 1
▁meal 1
come 1
▁spic 1
▁changes 1
▁highlights 1
▁180 1
▁barrier 1
▁confident 1
▁delete 1
▁diabetes 1
▁flick 1
▁leopard 1
▁oxygen 1
▁peanut 1
▁ribbon 1
▁scalp 1
▁synthetic 1
▁taught 1
▁turtle 1
▁stiff 1
bson 1
▁butterfly 1
▁drug 1
▁bench 1
▁insert 1
▁warranty 1
▁kitty 1
▁wrapped 1
▁grease 1
nna 1
▁manufacturer 1
▁consistency 1
▁fur 1
▁valve 1
▁encourage 1
▁chains 1
▁combine 1
▁behavior 1
▁soften 1
▁amazing 1
state 1
dental 1
▁wor 1
ify 1
▁mountain 1
▁arch 1
▁boot 1
▁taper 1
▁programs 1
▁theme 1
ability 1
king 1
▁joint 1
▁arts 1
▁import 1
▁conditions 1
▁coated 1
ning 1
▁systems 1
▁touche 1
▁stands 1
▁weeds 1
▁happening 1
▁pounds 1
coming 1
ept 1
▁ca 1
ey 1
▁painted 1
la 1
▁tub 1
▁manual 1
▁multi 1
▁approximate 1
▁biodiesel 1
▁clown 1
▁flounder 1
▁resume 1
▁session 1
▁squash 1
▁technical 1
▁whip 1
▁yoyo 1
▁muller 1
▁stove 1
▁ollie 1
▁brayer 1
▁delicious 1
▁dough 1
▁label 1
▁hookah 1
▁pace 1
▁kiln 1
▁laura 1
▁nick 1
▁media 1
▁tomatoes 1
▁property 1
▁bath 1
▁punches 1
▁lesson 1
▁fourth 1
cro 1
▁file 1
▁boomer 1
cent 1
▁mom 1
arine 1
▁assistan 1
lon 1
▁female 1
▁jean 1
▁offer 1
ir 1
▁highly 1
li 1
▁remov 1
▁sets 1
fortunate 1
▁serious 1
▁bump 1
▁peac 1
▁freeze 1
▁bracket 1
▁future 1
▁impromptu 1
▁instrument 1
▁knock 1
▁sample 1
▁saturate 1
▁wound 1
▁zero 1
▁dvd 1
▁memory 1
▁lasso 1
▁shaft 1
▁broken 1
▁organic 1
▁guideline 1
▁mood 1
▁dehydrated 1
▁trust 1
▁moon 1
▁peach 1
▁0 1
▁filling 1
▁plum 1
▁calf 1
▁dri 1
▁matches 1
▁fingertips 1
▁carpet 1
artial 1
▁groups 1
▁runs 1
▁washer 1
man 1
▁yards 1
▁cells 1
▁commonly 1
▁components 1
▁el 1
▁function 1
▁clearly 1
▁gel 1
▁boiling 1
▁ability 1
▁cutters 1
▁soup 1
icle 1
cy 1
▁beside 1
▁bare 1
▁thighs 1
▁se 1
▁loss 1
ge 1
▁fel 1
▁compare 1
▁scratch 1
▁styles 1
▁ver 1
▁th 1
▁complet 1
▁obvious 1
over 1
▁minu 1
▁anybody 1
▁complicated 1
▁dialogue 1
▁essay 1
▁gecko 1
▁knowledge 1
▁millimeter 1
▁reptile 1
▁squeezing 1
▁tread 1
▁volcano 1
▁volume 1
▁minor 1
▁eliminat 1
▁enemy 1
▁summer 1
▁lump 1
▁preference 1
▁bedroom 1
▁flute 1
▁rack 1
▁resin 1
▁roping 1
▁garment 1
▁stake 1
▁trimming 1
▁bridge 1
▁jar 1
▁carrier 1
▁gather 1
▁geograph 1
▁national 1
▁dew 1
▁stable 1
▁setup 1
▁gun 1
▁binding 1
▁prepared 1
▁earth 1
▁connected 1
▁tricky 1
ung 1
▁weeks 1
ious 1
▁die 1
▁month 1
▁site 1
▁hem 1
▁coloring 1
▁source 1
▁eyebrow 1
▁feature 1
▁eighty 1
▁sewing 1
▁protected 1
▁noticed 1
▁recommended 1
▁item 1
▁exercises 1
▁ropes 1
▁cars 1
▁vitamins 1
▁roller 1
▁chip 1
▁clocks 1
dy 1
▁war 1
▁effects 1
▁park 1
▁boas 1
▁crochet 1
▁sweat 1
▁california 1
▁perception 1
▁pulse 1
▁razor 1
▁shredde 1
▁lake 1
▁roast 1
▁subtle 1
▁apple 1
▁diameter 1
▁slack 1
▁construction 1
▁extinguisher 1
▁resistance 1
▁email 1
▁association 1
▁planning 1
▁batteries 1
▁vine 1
▁version 1
▁deco 1
▁homework 1
▁max 1
▁000 1
▁history 1
▁till 1
▁lever 1
ac 1
▁concerned 1
▁speaker 1
▁drying 1
▁easter 1
▁nuts 1
▁independent 1
▁oils 1
▁stretches 1
▁prep 1
▁bean 1
▁casting 1
▁shed 1
▁objects 1
▁boards 1
▁kit 1
▁ob 1
▁kid 1
▁seed 1
ities 1
▁skill 1
▁choke 1
▁prop 1
▁boats 1
▁strips 1
▁proportion 1
co 1
▁resist 1
un 1
▁mich 1
work 1
▁rum 1
▁screws 1
▁following 1
▁lo 1
▁adults 1
▁batter 1
▁law 1
▁campfire 1
▁conversation 1
▁jeff 1
▁password 1
▁pendulum 1
▁perfume 1
▁puppy 1
▁remain 1
▁scoring 1
▁sunscreen 1
▁modern 1
▁dedicate 1
▁sake 1
▁anchor 1
▁brief 1
▁hollywood 1
▁drew 1
▁sculpture 1
▁due 1
▁quarterback 1
▁torch 1
▁radio 1
▁respect 1
▁carbon 1
▁flight 1
▁rotation 1
▁apartment 1
▁noise 1
▁compass 1
▁lust 1
▁dropp 1
▁lunge 1
▁details 1
▁tailor 1
▁legal 1
▁tan 1
▁born 1
▁none 1
▁grinder 1
▁cone 1
▁stronger 1
▁slower 1
▁mistakes 1
▁wedge 1
ham 1
gen 1
▁sits 1
▁maker 1
▁reps 1
▁pee 1
▁tre 1
▁po 1
▁evening 1
▁ideal 1
▁abdominal 1
▁scissor 1
▁san 1
▁folded 1
ure 1
ma 1
▁package 1
▁poles 1
▁landing 1
▁maxim 1
▁ju 1
▁paddl 1
weight 1
ship 1
▁arc 1
▁25 1
wart 1
ile 1
▁gas 1
▁pile 1
▁dimension 1
▁quart 1
▁accessories 1
▁asparagus 1
▁bicycle 1
▁bullet 1
▁calendar 1
▁category 1
▁competition 1
▁cowboy 1
▁error 1
▁etiquette 1
▁grout 1
▁positive 1
▁render 1
▁utah 1
▁rich 1
▁spider 1
▁staff 1
▁classroom 1
▁creative 1
▁decorative 1
▁demonstration 1
▁decoration 1
▁wake 1
▁shopping 1
▁human 1
▁fancy 1
▁torque 1
▁buckle 1
▁vision 1
▁lying 1
▁scar 1
▁reward 1
▁seem 1
ative 1
lla 1
▁lined 1
de 1
gage 1
▁breaks 1
▁additional 1
he 1
▁ago 1
▁detector 1
▁waiting 1
▁costume 1
▁clipper 1
▁terminal 1
▁mostly 1
tting 1
▁evenly 1
bris 1
▁trees 1
▁jo 1
ide 1
▁filled 1
ja 1
▁bor 1
▁cent 1
▁rings 1
▁terminals 1
▁fu 1
ond 1
▁gra 1
▁cha 1
na 1
▁chi 1
▁vertical 1
▁efficient 1
▁coarse 1
▁chemicals 1
▁grade 1
▁secret 1
▁conno 1
▁competitive 1
▁david 1
▁feather 1
▁furniture 1
▁peroxide 1
▁regard 1
▁respond 1
▁telephone 1
▁umbrella 1
▁border 1
▁ease 1
▁hobson 1
▁jaw 1
▁risk 1
▁cabinet 1
▁hose 1
▁zebra 1
▁manner 1
▁vase 1
▁exposure 1
▁puff 1
▁lady 1
▁concept 1
▁discover 1
▁automatically 1
▁ruin 1
▁bodies 1
▁humor 1
▁cuff 1
▁species 1
▁saddle 1
▁salon 1
▁fuel 1
▁marriage 1
▁message 1
▁clockwise 1
▁purple 1
▁tile 1
▁reference 1
▁sundae 1
▁tv 1
▁potatoes 1
▁kle 1
isse 1
▁strange 1
▁injury 1
▁hardness 1
▁anytime 1
▁vet 1
▁limit 1
▁crawl 1
▁todd 1
▁conc 1
▁installed 1
▁damaged 1
▁brushes 1
elle 1
▁inter 1
nce 1
bal 1
▁extensions 1
▁forms 1
col 1
▁parents 1
▁ann 1
▁ankles 1
▁male 1
▁benefit 1
▁timing 1
▁sp 1
▁computers 1
▁19 1
nger 1
▁y 1
▁weather 1
▁rules 1
▁introduce 1
▁strikes 1
▁begins 1
▁ne 1
▁temperatures 1
▁basics 1
▁notch 1
▁fla 1
▁sw 1
stream 1
asana 1
light 1
▁roots 1
▁reflect 1
▁snug 1
▁blank 1
▁activities 1
▁bloom 1
▁cabbage 1
▁dribbling 1
▁dynamic 1
▁expand 1
▁hypnosis 1
▁insomnia 1
▁intensity 1
▁nutrients 1
▁perpendicular 1
▁platform 1
▁releasing 1
▁serving 1
▁frizz 1
▁harsh 1
▁immun 1
▁sixteen 1
▁wife 1
▁indicate 1
▁cork 1
▁mouse 1
▁underwear 1
▁concentrate 1
▁statement 1
▁adjustment 1
▁describe 1
▁worse 1
ph 1
▁afterwards 1
▁production 1
▁hood 1
▁buttons 1
▁cleaned 1
au 1
▁stripes 1
▁ex 1
▁outline 1
▁missing 1
▁exfoliate 1
▁total 1
▁rag 1
▁blended 1
▁specialize 1
▁sting 1
▁happened 1
▁whiten 1
lew 1
▁walls 1
▁thigh 1
▁outdoor 1
▁bite 1
▁mr 1
▁wines 1
▁motions 1
▁grav 1
▁exam 1
▁shin 1
▁eating 1
anna 1
5 1
▁trie 1
ring 1
expensive 1
soft 1
▁rent 1
▁subm 1
▁lighten 1
▁east 1
▁event 1
▁bending 1
▁quiet 1
▁relationships 1
▁nin 1
▁defend 1
▁america 1
ral 1
▁anthony 1
▁bartender 1
▁ceramic 1
▁copper 1
▁crisp 1
▁cushion 1
▁destroy 1
▁eyeliner 1
▁gipson 1
▁necklace 1
▁scene 1
▁squeegee 1
▁vintage 1
▁backswing 1
▁dull 1
▁eggplant 1
▁splash 1
▁unique 1
▁enclosure 1
▁cycle 1
▁pause 1
▁fail 1
▁flexible 1
▁peg 1
▁coral 1
▁mild 1
▁link 1
▁campus 1
▁retain 1
▁bevel 1
▁temper 1
▁lack 1
▁wrapping 1
▁purchasing 1
▁confused 1
▁plank 1
▁pure 1
▁seams 1
▁located 1
▁vary 1
▁hide 1
▁durable 1
▁shiny 1
▁symptoms 1
▁passes 1
▁slipp 1
ga 1
▁balanced 1
▁compar 1
▁journals 1
ck 1
▁played 1
ze 1
▁float 1
▁marked 1
▁farm 1
▁measured 1
▁focused 1
▁crystal 1
▁straw 1
▁agent 1
▁panel 1
▁pole 1
▁coats 1
▁goals 1
▁teams 1
▁carrying 1
▁locking 1
lo 1
pped 1
▁cre 1
ency 1
▁masking 1
▁molds 1
▁customers 1
▁faci 1
▁ace 1
▁events 1
2 1
ip 1
▁eyebrows 1
▁sn 1
ex 1
▁gar 1
▁gardening 1
▁sa 1
▁bee 1
▁downward 1
▁wings 1
nd 1
▁stamps 1
▁drinking 1
new 1
▁stars 1
▁cr 1
▁tag 1
▁fight 1
▁chris 1
▁advance 1
▁consistent 1
derly 1
▁contain 1
▁breasts 1
▁danger 1
▁author 1
▁bunker 1
▁closing 1
▁commercial 1
▁confidence 1
▁critical 1
▁drywall 1
▁frequently 1
▁impact 1
▁impossible 1
▁international 1
▁jersey 1
▁leak 1
▁lettuce 1
▁medicine 1
▁motocross 1
▁residue 1
▁treadmill 1
▁jail 1
▁roof 1
▁crunch 1
▁swiss 1
▁racing 1
▁pizza 1
▁pedal 1
▁settle 1
▁rubbing 1
▁impression 1
▁boss 1
▁arti 1
▁freezer 1
▁digital 1
▁pig 1
▁stro 1
▁seventy 1
▁lucky 1
▁compost 1
▁couch 1
▁magnet 1
▁blender 1
▁mall 1
ab 1
▁lie 1
▁fift 1
▁sling 1
▁jobs 1
hanna 1
ak 1
▁doll 1
▁deeply 1
▁warming 1
▁kicks 1
▁mar 1
▁sport 1
▁hats 1
▁vitamin 1
▁imp 1
▁pointed 1
▁les 1
▁active 1
▁sl 1
▁prints 1
▁sheets 1
▁holder 1
bo 1
▁rolls 1
▁pa 1
▁treats 1
▁focusing 1
▁mass 1
▁climb 1
way 1
▁cakes 1
ky 1
board 1
▁mini 1
▁la 1
▁di 1
▁stack 1
ap 1
▁jan 1
▁thai 1
▁birth 1
▁europe 1
▁airplane 1
▁cactus 1
▁church 1
▁disappear 1
▁document 1
▁dream 1
▁expense 1
▁external 1
▁hydro 1
▁intake 1
▁knives 1
▁nunchuck 1
▁profile 1
▁shrug 1
▁blond 1
▁grid 1
▁housing 1
▁turkey 1
▁fellow 1
▁gradual 1
▁valley 1
▁fourteen 1
▁shore 1
▁introduction 1
▁zap 1
▁allergi 1
▁pork 1
▁bailey 1
▁cheat 1
▁visible 1
▁electronic 1
▁skull 1
▁icon 1
▁busy 1
▁zop 1
▁data 1
▁hock 1
smith 1
▁18 1
▁collection 1
▁realistic 1
▁ny 1
▁selection 1
▁fever 1
▁classes 1
dle 1
▁tackle 1
▁potty 1
▁tray 1
▁mer 1
▁harm 1
▁placement 1
▁convenient 1
▁vent 1
▁ke 1
▁safely 1
ow 1
▁boxing 1
▁rob 1
▁concentrat 1
▁bracelets 1
▁parking 1
▁angles 1
▁afro 1
gar 1
▁king 1
▁occasional 1
▁cd 1
▁solutions 1
▁meant 1
▁trace 1
▁chap 1
▁sparks 1
▁signs 1
▁levels 1
▁wi 1
head 1
▁user 1
▁washed 1
▁cookies 1
▁blowing 1
▁lives 1
▁protein 1
▁teas 1
▁student 1
▁kings 1
▁caused 1
▁grinding 1
rete 1
▁canal 1
erry 1
▁vo 1
▁poses 1
▁abdominals 1
▁purposes 1
▁trop 1
▁segments 1
▁marking 1
▁factor 1
▁serves 1
tive 1
▁ro 1
▁ko 1
▁checked 1
▁skip 1
▁exfoliat 1
ned 1
▁tissues 1
▁tra 1
▁includ 1
bacteria 1
▁refer 1
▁sleeves 1
end 1
▁alternat 1
rd 1
▁injur 1
▁counts 1
▁inhal 1
▁consum 1
▁progress 1
▁rebound 1
▁register 1
▁automatic 1
▁challenging 1
▁christmas 1
▁cloud 1
▁consult 1
▁detergent 1
▁duck 1
▁excuse 1
▁household 1
▁industry 1
▁league 1
▁liquor 1
▁monitor 1
▁mortgage 1
▁neighbor 1
▁psychologist 1
▁salad 1
▁smash 1
▁upgrade 1
▁valuable 1
▁crush 1
▁dump 1
▁carolina 1
▁pretend 1
▁task 1
▁conservative 1
▁axle 1
▁elastic 1
▁silent 1
▁peak 1
▁gallon 1
▁stationary 1
▁sideways 1
▁empty 1
▁scroll 1
▁purse 1
▁organization 1
▁mad 1
▁text 1
▁review 1
▁initial 1
▁thinner 1
▁kiss 1
▁shield 1
▁dragon 1
rick 1
▁bass 1
ancy 1
▁cleanser 1
▁graduat 1
▁skim 1
▁pon 1
▁ruler 1
▁mi 1
tain 1
▁suck 1
▁receiver 1
▁forest 1
cal 1
▁whoever 1
▁inspect 1
▁cur 1
▁oo 1
▁fin 1
▁latch 1
▁hamstrings 1
▁conditioner 1
▁tender 1
▁stream 1
▁adapti 1
▁ken 1
3 1
▁boa 1
▁te 1
▁ticks 1
▁steeping 1
ates 1
allow 1
▁brad 1
▁12 1
▁nor 1
▁hinges 1
▁treated 1
▁si 1
▁houses 1
▁situations 1
▁socks 1
▁meeting 1
ug 1
▁fleas 1
▁bars 1
pp 1
▁concern 1
▁closely 1
▁flea 1
▁combinations 1
▁trainer 1
▁sleeping 1
▁costumes 1
▁decid 1
▁blending 1
▁stimulate 1
▁rats 1
let 1
▁drawer 1
▁irons 1
ground 1
▁ya 1
wood 1
7 1
▁videos 1
▁indoors 1
▁char 1
▁align 1
▁q 1
▁lob 1
▁brow 1
utch 1
▁semi 1
▁symbol 1
▁comfort 1
▁implement 1
▁tack 1
▁abscess 1
▁activity 1
▁afternoon 1
▁algae 1
▁broccoli 1
▁burrow 1
▁conflict 1
▁department 1
▁dinosaur 1
▁dumbbell 1
▁duty 1
▁fabulous 1
▁glow 1
▁hormone 1
▁husband 1
▁nobody 1
▁princ 1
▁response 1
▁ribcage 1
▁routine 1
▁sensitivity 1
▁storage 1
▁sturdy 1
▁certificat 1
▁clasp 1
▁climate 1
▁grill 1
▁parsley 1
▁random 1
▁recreation 1
▁crash 1
▁ocd 1
▁hollow 1
▁odor 1
▁threat 1
▁beginner 1
▁mouthpiece 1
▁bound 1
▁jet 1
▁ratio 1
▁appearance 1
▁equi 1
▁herbs 1
▁photographic 1
▁reaction 1
▁versatile 1
▁hangover 1
▁million 1
▁snowman 1
▁communicate 1
▁almond 1
▁cylinder 1
▁crust 1
▁agree 1
▁nil 1
▁highway 1
▁jas 1
▁survive 1
▁stainless 1
▁lenses 1
▁stopping 1
▁chrome 1
▁sent 1
▁psychology 1
▁dries 1
▁fitness 1
▁viewer 1
▁cooker 1
▁sweater 1
▁worms 1
ite 1
▁hanger 1
▁knots 1
▁ph 1
▁masse 1
▁nap 1
▁entr 1
▁locks 1
▁pest 1
uring 1
▁lu 1
▁bearing 1
▁skiing 1
▁trac 1
mp 1
▁bi 1
▁members 1
▁rating 1
thus 1
inkle 1
▁drills 1
▁bug 1
▁threads 1
▁recipe 1
▁movie 1
▁operat 1
▁expression 1
▁cookie 1
▁scrap 1
▁ben 1
▁mile 1
▁rot 1
▁sole 1
ized 1
▁pit 1
nia 1
▁rug 1
▁hits 1
▁massag 1
▁ti 1
j 1
▁dots 1
▁assemble 1
▁athlet 1
▁toys 1
▁ta 1
▁cont 1
▁pairing 1
▁flags 1
▁ding 1
▁60 1
8 1
ors 1
▁14 1
▁ma 1
▁internal 1
iti 1
▁bands 1
▁branch 1
▁accept 1
▁appear 1
▁surf 1
▁manage 1
▁habit 1
▁dramatic 1
▁blah 1
▁bouncing 1
▁caliper 1
▁casserole 1
▁delicate 1
▁diaper 1
▁fatigue 1
▁frog 1
▁fundamental 1
▁invented 1
▁landscape 1
▁papaya 1
▁practitioner 1
▁principle 1
▁regulation 1
▁sneak 1
▁spiral 1
▁trigger 1
▁uncomfortable 1
▁uniform 1
▁yank 1
▁nerve 1
▁bleach 1
▁lunch 1
▁contour 1
▁shimmy 1
▁ledge 1
▁composition 1
▁southern 1
▁security 1
▁andrews 1
▁odd 1
▁private 1
▁diving 1
▁grit 1
▁nearby 1
▁medication 1
▁funnel 1
▁exit 1
▁honest 1
▁crew 1
▁injuries 1
▁hale 1
▁mural 1
ficial 1
▁coin 1
▁halfway 1
▁sequence 1
▁loud 1
▁personality 1
▁coolant 1
▁solve 1
▁specialty 1
▁solder 1
▁luck 1
▁related 1
▁truck 1
▁wrinkle 1
▁parker 1
▁postures 1
berry 1
▁chopped 1
▁sewn 1
▁photographing 1
hill 1
▁aqua 1
▁porc 1
▁presses 1
▁shooter 1
▁smoking 1
▁intervals 1
▁resources 1
▁lungs 1
▁career 1
▁mixer 1
▁magazines 1
▁glasses 1
ley 1
▁developed 1
▁stat 1
▁brewing 1
ach 1
▁spice 1
▁feeding 1
▁ra 1
iness 1
que 1
▁freestyle 1
use 1
▁wrists 1
▁actions 1
ice 1
▁sock 1
▁wires 1
▁handl 1
▁concerns 1
▁commands 1
▁stones 1
via 1
▁rec 1
▁pops 1
▁member 1
1 1
page 1
▁ended 1
▁prepp 1
ack 1
ba 1
▁sing 1
▁differences 1
▁planted 1
▁sources 1
▁gels 1
▁mac 1
▁minim 1
▁tee 1
▁doors 1
ana 1
unk 1
back 1
▁cheers 1
▁frost 1
hood 1
lock 1
ified 1
ible 1
▁raft 1
▁measurements 1
▁recover 1
▁provid 1
▁surprise 1
gh 1
▁infect 1
▁afford 1
▁effort 1
▁whisk 1
▁sail 1
▁bulgaria 1
▁canadian 1
▁cichlids 1
▁compartment 1
▁corrosion 1
▁german 1
▁himself 1
▁indicator 1
▁lizard 1
▁mechanism 1
▁miami 1
▁nervous 1
▁ocean 1
▁ourselves 1
▁physician 1
▁promenade 1
▁quilt 1
▁refrigerator 1
▁significant 1
▁thermometer 1
▁tuxedo 1
▁undercoat 1
▁varieties 1
▁jawfish 1
▁decreas 1
▁egypt 1
▁laugh 1
▁fungus 1
▁accident 1
▁exciting 1
▁trophy 1
▁trash 1
▁convertible 1
▁friday 1
▁silk 1
▁fluff 1
▁host 1
▁skateboard 1
▁cavit 1
▁bridle 1
▁denture 1
▁shedding 1
▁disabilities 1
▁native 1
▁rake 1
▁calves 1
▁content 1
▁clinic 1
▁laun 1
▁surgery 1
▁antique 1
▁fantastic 1
▁shaking 1
▁picket 1
▁lap 1
▁greg 1
▁tarp 1
ward 1
▁breve 1
▁lb 1
▁cardio 1
▁flop 1
▁primer 1
▁wil 1
▁football 1
▁volt 1
ww 1
▁headache 1
▁format 1
▁reminder 1
▁disease 1
▁mature 1
▁proof 1
▁flatten 1
▁basement 1
▁lace 1
▁vel 1
▁lane 1
▁grey 1
▁producer 1
▁killer 1
▁tanning 1
▁fighter 1
▁camel 1
▁overcome 1
▁outward 1
dry 1
▁farther 1
▁friendly 1
▁meter 1
▁success 1
▁wiggl 1
▁studie 1
▁bleeding 1
▁gre 1
▁folks 1
▁effectively 1
▁scarf 1
▁required 1
▁sparkler 1
▁renting 1
halo 1
lar 1
▁bo 1
▁na 1
▁tied 1
▁fortunate 1
▁explained 1
▁tactic 1
▁dye 1
▁actors 1
▁matt 1
▁smok 1
▁guests 1
▁planet 1
▁boxers 1
▁culture 1
▁bur 1
▁loved 1
▁circu 1
▁operate 1
▁sum 1
▁compromise 1
▁proteins 1
▁designs 1
qu 1
▁drinks 1
▁agents 1
evan 1
▁sold 1
▁procedure 1
▁clai 1
▁eighth 1
rk 1
▁impress 1
▁pointer 1
▁recognize 1
tra 1
▁cutter 1
▁upward 1
▁services 1
▁shadows 1
▁thanks 1
▁wav 1
▁methods 1
tta 1
▁files 1
ache 1
fter 1
and 1
▁restaurants 1
ial 1
ummy 1
▁dean 1
bone 1
dab 1
▁kayaks 1
▁compete 1
stick 1
▁bleed 1
▁determin 1
form 1
ball 1
▁ge 1
ngling 1
▁vir 1
lain 1
▁markers 1
ister 1
▁strain 1
▁industri 1
ector 1
▁overlap 1
▁apr 1
▁attempt 1
▁awesome 1
▁celery 1
▁comfortably 1
▁crevices 1
▁cricket 1
▁depot 1
▁download 1
▁fingernail 1
▁flesh 1
▁frozen 1
▁glitter 1
▁incredibl 1
▁maneuver 1
▁melissa 1
▁moisturizing 1
▁mulch 1
▁nowadays 1
▁shock 1
▁snatch 1
▁tablespoon 1
▁translucent 1
▁transport 1
▁glute 1
▁newspaper 1
▁pendant 1
▁kyle 1
▁ultimate 1
▁intense 1
▁weapon 1
▁squish 1
▁properties 1
▁atlant 1
▁rattle 1
▁disinfectant 1
▁accessory 1
▁laur 1
▁circulation 1
▁accessible 1
▁elevation 1
▁slant 1
▁participant 1
▁polic 1
▁truth 1
▁waterproof 1
▁identified 1
▁mcg 1
▁infant 1
▁tempo 1
▁oak 1
▁development 1
▁capacity 1
▁crowd 1
▁consumer 1
▁piercing 1
▁consideration 1
▁flatter 1
▁styling 1
▁carbohydrates 1
▁tangle 1
▁chef 1
▁footage 1
▁fa 1
▁harden 1
▁ab 1
▁sharpening 1
▁favorites 1
ole 1
ola 1
ied 1
▁moist 1
▁referr 1
▁dart 1
▁formal 1
▁attract 1
▁enable 1
▁stressed 1
▁bout 1
▁enchiladas 1
▁costs 1
▁vani 1
▁mechanics 1
▁lint 1
▁tar 1
▁gums 1
▁petals 1
▁smoothly 1
▁parting 1
▁simpler 1
▁spec 1
▁discussed 1
▁dan 1
va 1
▁sight 1
▁introduc 1
▁prices 1
▁stuffing 1
▁west 1
▁masks 1
▁hurting 1
tion 1
▁expressions 1
▁tripods 1
ium 1
▁rely 1
▁trainers 1
▁slot 1
nts 1
ddy 1
▁flo 1
▁execute 1
▁outdoors 1
▁lat 1
▁operation 1
▁chunk 1
▁director 1
▁element 1
ud 1
bum 1
▁breaths 1
▁pil 1
▁rollers 1
▁towels 1
und 1
▁ages 1
ger 1
terior 1
▁gla 1
▁springs 1
ill 1
hand 1
9 1
▁surround 1
▁chopp 1
while 1
▁convenien 1
▁caus 1
▁flows 1
▁thorough 1
▁liter 1
▁associat 1
▁bunn 1
ban 1
▁consist 1
emost 1
etti 1
▁disclos 1
▁excite 1
▁scoot 1
▁airport 1
▁antifreeze 1
▁backyard 1
▁calcium 1
▁coordinate 1
▁divorce 1
▁elegant 1
▁enamel 1
▁enhance 1
▁escape 1
▁fragile 1
▁gasket 1
▁grape 1
▁infuser 1
▁jesus 1
▁language 1
▁responsible 1
▁silicone 1
▁simmer 1
▁tobacco 1
▁toothbrush 1
▁toxoplasmosis 1
▁underwire 1
▁unicycle 1
▁vanveen 1
▁ashley 1
▁blush 1
▁flies 1
▁proceed 1
▁financi 1
▁linebacker 1
▁crucial 1
▁navigat 1
▁chisel 1
▁incline 1
▁karie 1
▁gauge 1
▁portrait 1
▁sunny 1
▁throat 1
▁edible 1
▁university 1
▁puffiness 1
▁failure 1
▁goggles 1
▁tomorrow 1
▁entertain 1
▁blot 1
▁entrance 1
▁slate 1
▁network 1
▁centerpiece 1
▁clogg 1
▁martini 1
▁bail 1
▁unlike 1
▁creme 1
▁wow 1
▁stripper 1
▁devices 1
▁performance 1
▁emergency 1
▁bang 1
▁theater 1
▁lashes 1
▁jig 1
▁attachment 1
▁divide 1
▁alive 1
▁reflection 1
▁powerful 1
▁worrie 1
▁moisturizer 1
▁commit 1
▁upwards 1
▁platter 1
▁calculat 1
▁sex 1
▁alignment 1
▁neckline 1
▁footwork 1
▁pill 1
symmetric 1
▁tw 1
▁enduran 1
vig 1
lot 1
▁seni 1
▁jane 1
▁fasten 1
▁tonight 1
▁fry 1
▁molecules 1
▁sewer 1
▁fra 1
tories 1
▁alternate 1
▁cannon 1
▁uno 1
▁handler 1
▁surrounding 1
▁flipp 1
▁developer 1
mes 1
▁brushed 1
▁securely 1
▁melted 1
erial 1
zen 1
▁sift 1
devil 1
▁pelvis 1
▁ship 1
dic 1
▁loosely 1
▁dresser 1
▁clues 1
▁parrots 1
▁slides 1
▁writer 1
▁cleanse 1
▁bagg 1
go 1
▁selected 1
▁organize 1
▁mast 1
▁cloves 1
cap 1
▁flavored 1
▁rotat 1
▁200 1
▁fade 1
▁toilets 1
▁golfer 1
▁heating 1
▁stimulat 1
▁individuals 1
▁dressing 1
▁scrape 1
tory 1
▁bugs 1
▁sta 1
▁dome 1
▁fins 1
▁containers 1
▁mental 1
▁fork 1
▁wors 1
▁russ 1
▁flor 1
▁def 1
▁relaxing 1
▁males 1
▁detectors 1
▁chan 1
eon 1
▁ham 1
▁swamp 1
▁runner 1
▁heated 1
▁tricep 1
▁fe 1
▁earring 1
van 1
▁guest 1
teri 1
▁parent 1
▁kits 1
▁functions 1
▁11 1
dge 1
▁females 1
role 1
▁treatments 1
▁burning 1
▁mountains 1
▁boxer 1
▁shades 1
▁carve 1
▁slices 1
ah 1
▁indirect 1
idding 1
▁centering 1
field 1
▁bri 1
4 1
style 1
book 1
win 1
▁sharpen 1
▁matching 1
ura 1
▁isolate 1
▁explode 1
▁stan 1
▁distinct 1
▁volley 1
▁accuracy 1
▁beneficial 1
▁bicep 1
▁bruni 1
▁cilantro 1
▁compact 1
▁daniel 1
▁discolor 1
▁emphasize 1
▁hurricane 1
▁ladder 1
▁maddaloni 1
▁petersburg 1
▁professor 1
▁pyramid 1
▁reapply 1
▁seafood 1
▁silhouette 1
▁smart 1
▁squad 1
▁strategy 1
▁submerge 1
▁suction 1
▁tattoo 1
▁warrior 1
▁herself 1
▁interfere 1
▁yarn 1
▁firing 1
▁somehow 1
▁undulati 1
▁jim 1
▁shallow 1
▁ryan 1
oxida 1
▁framing 1
▁slab 1
▁salary 1
▁barbie 1
▁vibration 1
▁possibilities 1
▁rubbed 1
▁trimmed 1
ratche 1
▁overnight 1
▁ginger 1
▁snowboard 1
▁intention 1
▁rach 1
▁broad 1
▁poker 1
▁mike 1
▁sizzl 1
▁irritat 1
▁invit 1
▁knit 1
▁brain 1
▁epi 1
▁ac 1
▁spotting 1
▁fee 1
▁adjustable 1
hee 1
▁bumper 1
▁reuse 1
▁dive 1
▁steer 1
▁recent 1
▁undo 1
▁exposed 1
▁monthly 1
▁temporar 1
▁wins 1
▁manually 1
▁camping 1
ise 1
atic 1
▁differently 1
▁warn 1
bi 1
▁frosting 1
▁curved 1
▁minerals 1
▁hu 1
▁span 1
▁rounds 1
▁burner 1
▁cooler 1
▁lar 1
▁ram 1
▁instructions 1
▁jacki 1
▁fuller 1
fic 1
▁ty 1
▁slope 1
▁cameras 1
hoe 1
▁obstacles 1
▁che 1
ches 1
▁repeats 1
▁settings 1
▁wok 1
▁procedures 1
flow 1
met 1
▁stirr 1
▁blocker 1
▁buyer 1
lance 1
▁carb 1
long 1
▁shirts 1
▁planne 1
▁bother 1
▁popp 1
ries 1
▁slop 1
▁twisted 1
all 1
▁aces 1
50 1
▁obstacle 1
tors 1
▁spark 1
▁disk 1
▁ka 1
▁organiz 1
ext 1
▁tast 1
▁spade 1
▁backward 1
▁str 1
▁feelings 1
▁involv 1
▁drives 1
ogen 1
rie 1
▁pockets 1
▁gener 1
▁receiv 1
▁stud 1
by 1
▁shutt 1
view 1
▁pearl 1
mail 1
case 1
keep 1
personal 1
▁negatives 1
ette 1
▁hol 1
▁accumulate 1
▁strand 1
▁establish 1
▁publish 1
▁thoughts 1
stock 1
▁tru 1
▁expos 1
▁rais 1
▁scienti 1
▁poke 1
olution 1
riction 1
▁instruct 1
▁fool 1
▁fantas 1
▁watt 1
▁auto 1
ization 1
▁favor 1
▁croco 1
▁accomplish 1
▁blind 1
▁embellish 1
▁flutter 1
▁modify 1
▁survey 1
▁asynch 1
▁behalf 1
▁bristle 1
▁century 1
▁chameleon 1
▁cocktail 1
▁conclude 1
▁dementia 1
▁denim 1
▁deuce 1
▁dizzy 1
▁enlarger 1
▁gadget 1
▁gorgeous 1
▁grapevine 1
▁handspring 1
▁hazard 1
▁igoogle 1
▁influence 1
▁nitrogen 1
▁outlook 1
▁perimeter 1
▁poetry 1
▁precise 1
▁pupil 1
▁remedies 1
▁repellent 1
▁scarecrow 1
▁streak 1
▁syndrome 1
▁tarleton 1
▁therapeutic 1
▁vorrac 1
▁wheelchair 1
▁adhd 1
▁copyright 1
▁daisy 1
▁rush 1
▁squirt 1
▁glob 1
▁larew 1
▁craps 1
▁grandmother 1
▁pronounced 1
▁robot 1
▁title 1
▁tuning 1
▁tabletop 1
▁cement 1
▁salsa 1
▁ticket 1
▁swell 1
▁socket 1
▁umb 1
▁forehead 1
▁comedian 1
▁scrapbook 1
▁bash 1
▁fringe 1
▁initiate 1
▁plumber 1
▁mites 1
▁sketch 1
▁swab 1
▁orientation 1
▁neutralize 1
▁weekend 1
▁reef 1
▁firefly 1
▁porous 1
▁reproduction 1
▁upright 1
▁illnesses 1
▁population 1
▁velocity 1
▁keyboard 1
▁sara 1
▁manageable 1
▁diminished 1
▁coil 1
▁28 1
▁artists 1
▁assum 1
▁swan 1
▁coarser 1
▁graphic 1
▁scratches 1
▁nest 1
▁essen 1
▁suggestion 1
▁numer 1
▁16 1
▁leftover 1
▁lily 1
▁thoroughly 1
▁voc 1
▁warmth 1
ison 1
▁balm 1
▁stabilized 1
▁formation 1
▁established 1
▁translate 1
rian 1
▁emb 1
▁backbone 1
▁stu 1
▁inspired 1
▁analyz 1
▁christi 1
▁calories 1
▁noodles 1
▁healing 1
▁engineer 1
▁worker 1
▁catches 1
▁individually 1
▁scallops 1
ep 1
▁stairs 1
▁smoother 1
▁kneel 1
▁calling 1
▁dishe 1
▁decks 1
▁interior 1
lien 1
▁shears 1
urdle 1
▁slap 1
▁burg 1
lates 1
sons 1
▁bucks 1
▁z 1
▁athlete 1
▁kites 1
▁machines 1
▁listing 1
▁beautifully 1
▁disks 1
▁minimiz 1
▁breaker 1
▁chunks 1
▁theory 1
▁importan 1
▁hero 1
▁examin 1
▁eighths 1
▁insur 1
▁skipp 1
▁cle 1
▁movies 1
▁las 1
ez 1
▁loa 1
rish 1
▁org 1
reit 1
▁dripp 1
▁matte 1
▁factors 1
▁suits 1
mit 1
▁nicer 1
▁mu 1
▁panels 1
ern 1
▁rains 1
ang 1
▁amp 1
isco 1
▁clippers 1
ware 1
▁tint 1
▁sc 1
ub 1
▁timer 1
ax 1
▁dealership 1
▁festival 1
▁demonstrat 1
▁sau 1
▁waxing 1
▁rese 1
vas 1
▁pale 1
▁heal 1
▁rider 1
00 1
▁lateral 1
nter 1
▁spr 1
▁folding 1
▁carpe 1
▁70 1
slide 1
common 1
glass 1
mark 1
stand 1
beat 1
meal 1
▁80 1
▁testing 1
▁offers 1
▁24 1
▁reli 1
▁dent 1
▁lubricate 1
▁relieve 1
▁backpack 1
▁energ 1
▁according 1
▁guarantee 1
▁integrate 1
▁advantages 1
▁poor 1
▁fr 1
▁trans 1
▁moisturize 1
▁staple 1
▁granula 1
▁react 1
▁complex 1
▁etc 1
▁applica 1
lumin 1
▁jerk 1
▁shout 1
▁vacuum 1
▁amplifier 1
▁appetite 1
▁bladder 1
▁blemish 1
▁caribbean 1
▁channel 1
▁coordination 1
▁decade 1
▁diffuse 1
▁engaging 1
▁enzyme 1
▁expansion 1
▁hairspray 1
▁hulk 1
▁knuckle 1
▁nonsense 1
▁offensive 1
▁racquet 1
▁rapid 1
▁receipt 1
▁remote 1
▁soothing 1
▁stool 1
▁transaction 1
▁tremendous 1
▁tumbling 1
▁vendors 1
▁veterinar 1
▁vital 1
▁cherry 1
▁icebreaker 1
▁penetrat 1
▁region 1
▁sprint 1
▁hobby 1
▁resemble 1
▁adobe 1
▁storm 1
▁criss 1
▁coast 1
▁disconnect 1
▁division 1
▁awful 1
olster 1
▁administrat 1
▁western 1
▁quote 1
▁desk 1
▁fumes 1
▁fakie 1
▁emulsion 1
▁ranch 1
▁latte 1
▁plumbing 1
▁720 1
▁drape 1
▁ripped 1
▁zipper 1
▁mango 1
▁labor 1
▁complexion 1
▁radial 1
▁trapped 1
▁inject 1
▁halt 1
▁bronzer 1
▁stunt 1
▁affordable 1
▁hydrated 1
indication 1
▁alter 1
▁17 1
▁assembly 1
▁buildup 1
▁aquarium 1
▁drainage 1
▁manager 1
▁refined 1
▁grand 1
▁marble 1
▁brighten 1
▁strainer 1
▁contribute 1
▁dimensional 1
▁exhaling 1
▁removal 1
▁increases 1
▁prevention 1
▁attaches 1
▁lawn 1
▁bust 1
▁internally 1
▁propel 1
▁toenails 1
▁comedy 1
▁organ 1
▁vice 1
▁officer 1
▁mee 1
▁ven 1
▁reporter 1
▁sill 1
▁cracker 1
tz 1
▁dad 1
▁compet 1
▁emotions 1
▁steamer 1
▁missed 1
20 1
▁gill 1
▁processes 1
▁died 1
▁skis 1
▁ni 1
▁kenn 1
▁separated 1
tended 1
suasive 1
▁lag 1
▁mor 1
▁ki 1
▁filet 1
▁readi 1
▁scratching 1
▁diver 1
ifu 1
ffic 1
▁hon 1
▁fet 1
ington 1
▁cal 1
▁pine 1
▁politic 1
▁switching 1
▁infections 1
ggy 1
allet 1
▁cab 1
nate 1
▁song 1
▁triceps 1
▁jog 1
▁dec 1
▁burned 1
▁directors 1
bit 1
manda 1
▁distribut 1
▁occurre 1
▁recipes 1
▁guards 1
non 1
▁environmental 1
▁juic 1
▁packing 1
▁inflat 1
▁hooked 1
▁imagina 1
▁depend 1
▁packages 1
tha 1
hopping 1
23 1
ird 1
▁500 1
▁ran 1
▁clove 1
▁choo 1
▁journal 1
▁gum 1
▁actor 1
can 1
▁occasion 1
▁petal 1
▁har 1
▁wa 1
ppy 1
▁bake 1
▁fil 1
▁punching 1
▁ug 1
▁trib 1
amper 1
▁robe 1
▁perm 1
▁ze 1
worms 1
gan 1
mous 1
cake 1
▁weigh 1
clock 1
▁bou 1
▁lov 1
▁psycholog 1
▁insulate 1
ixing 1
▁absolut 1
▁temp 1
ature 1
▁locate 1
tually 1
▁define 1
▁compress 1
alic 1
cular 1
▁express 1
▁confine 1
▁enclos 1
▁drama 1
▁discou 1
▁reinstall 1
njo 1
▁acoustic 1
▁adhesive 1
▁altogether 1
▁arrow 1
▁backstroke 1
▁bamboo 1
▁banana 1
▁bandsaw 1
▁buffalo 1
▁chuck 1
▁considerably 1
▁dandasana 1
▁deflection 1
▁denial 1
▁destination 1
▁distinguish 1
▁esteem 1
▁extraction 1
▁families 1
▁gloomy 1
▁illustrate 1
▁illustrator 1
▁improvisation 1
▁intimidate 1
▁knead 1
▁monkey 1
▁mushy 1
▁paragraph 1
▁pliable 1
▁possum 1
▁printmaking 1
▁promote 1
▁psychiatrist 1
▁responsibility 1
▁revenue 1
▁satisf 1
▁saturday 1
▁scrunch 1
▁shiraz 1
▁smirnoff 1
▁solitaire 1
▁spiritual 1
▁spouse 1
▁sunglasses 1
▁switzerland 1
▁toothpaste 1
▁tortoise 1
▁yolk 1
▁activate 1
▁amelia 1
▁bank 1
▁impart 1
▁peddle 1
▁sensor 1
▁audio 1
▁fisherman 1
▁strict 1
cadill 1
▁commode 1
▁francisco 1
▁germs 1
▁reduction 1
▁slicing 1
▁spacing 1
▁shimmer 1
▁shelter 1
▁jones 1
▁serpentine 1
▁meditat 1
▁slick 1
▁venom 1
▁diesel 1
▁displace 1
▁teammate 1
▁limp 1
▁magnetism 1
▁davis 1
▁cleft 1
▁sencha 1
▁residen 1
▁snack 1
▁assessment 1
▁marsh 1
▁radius 1
▁horseradish 1
▁padded 1
▁ahh 1
▁padding 1
▁strategies 1
▁verbal 1
▁signature 1
▁crop 1
▁veil 1
▁wattage 1
▁humidity 1
▁synch 1
▁groom 1
▁voltage 1
▁alex 1
▁dix 1
▁terra 1
▁software 1
▁lapel 1
indy 1
▁progression 1
▁shaping 1
▁joke 1
▁electrician 1
▁dipping 1
▁employer 1
uary 1
▁colon 1
▁motor 1
▁winner 1
▁exception 1
▁approved 1
▁lifetime 1
▁terrible 1
▁fingerpicking 1
▁popcorn 1
▁station 1
▁relate 1
▁horribl 1
lord 1
orous 1
▁surge 1
▁carved 1
▁nast 1
▁colorful 1
▁inspire 1
▁annual 1
▁consistently 1
▁roy 1
▁rougher 1
▁cons 1
▁stra 1
▁organized 1
▁gag 1
▁nav 1
▁social 1
▁engaged 1
▁00 1
▁belong 1
▁toast 1
▁parties 1
0 1
▁increas 1
▁distractions 1
stible 1
io 1
▁dau 1
▁waxes 1
▁articles 1
▁carrots 1
▁repetitions 1
▁secured 1
▁floating 1
▁collectibles 1
▁boring 1
▁pur 1
▁lure 1
▁warmer 1
▁served 1
chu 1
▁upset 1
▁chase 1
▁fuse 1
▁seasoning 1
▁asana 1
▁li 1
6 1
▁detailed 1
▁led 1
▁rep 1
grams 1
ova 1
▁avoided 1
rank 1
▁windy 1
▁jen 1
▁earrings 1
▁regularly 1
▁operations 1
cle 1
logical 1
▁engl 1
▁cultures 1
ism 1
▁sandy 1
▁modeling 1
berg 1
▁stored 1
▁musical 1
bu 1
ppa 1
ncha 1
▁crystals 1
▁straws 1
▁floats 1
earned 1
▁limits 1
▁painter 1
▁yo 1
▁sal 1
▁stabilize 1
▁rei 1
▁component 1
▁science 1
phy 1
▁tact 1
▁assist 1
▁300 1
▁pe 1
▁concentr 1
▁glide 1
▁13 1
▁gan 1
ttle 1
▁designate 1
cut 1
cloth 1
▁radiat 1
came 1
▁balanc 1
thy 1
▁mash 1
▁bab 1
▁plast 1
▁motivat 1
▁detect 1
▁humid 1
▁skew 1
unnel 1
▁reinforce 1
▁pigment 1
▁skate 1
▁forgot 1
▁flamingo 1
▁abra 1
▁transparen 1
▁additives 1
▁amateur 1
▁assignment 1
▁caricature 1
▁complain 1
▁correspond 1
▁creativity 1
▁crook 1
▁exchange 1
▁facility 1
▁feminine 1
▁foul 1
▁goddess 1
▁headshot 1
▁identical 1
▁isolation 1
▁journey 1
▁limb 1
▁manipulate 1
▁meringue 1
▁mosaic 1
▁neglect 1
▁paintbrush 1
▁patricia 1
▁phobia 1
▁picnic 1
▁practical 1
▁pregnant 1
▁quad 1
▁regulate 1
▁respirator 1
▁smear 1
▁smudge 1
▁syrup 1
▁technolog 1
▁terminology 1
▁tutor 1
▁vinyl 1
▁death 1
▁remedy 1
▁detach 1
▁disorder 1
▁ordinar 1
▁creek 1
▁automo 1
▁kryny 1
▁taut 1
▁broadcast 1
▁smile 1
▁elongat 1
▁underarm 1
▁organism 1
▁decay 1
▁descent 1
▁confusing 1
▁urina 1
▁argument 1
▁creep 1
zza 1
▁gut 1
▁sandpaper 1
▁horn 1
▁prescribe 1
▁thailand 1
uffin 1
▁feedback 1
▁trav 1
▁groin 1
▁affiliation 1
▁pathway 1
▁skinny 1
iday 1
▁rail 1
▁touchdown 1
▁subjective 1
▁cupcake 1
▁cubes 1
▁replacement 1
▁prone 1
fill 1
▁drawback 1
▁weaken 1
▁spoken 1
▁stapler 1
▁headstand 1
▁indian 1
▁gul 1
▁milli 1
▁collector 1
▁layout 1
▁continuously 1
▁allowance 1
▁dominan 1
▁distracted 1
▁invest 1
mmy 1
▁intelligent 1
▁carton 1
▁manufactured 1
▁stylist 1
▁math 1
▁explosi 1
▁functional 1
▁grate 1
essica 1
▁dresses 1
▁integrated 1
lywood 1
rical 1
▁surprised 1
▁defined 1
▁sad 1
▁stitches 1
▁accumulat 1
▁quietly 1
▁bon 1
▁supplements 1
▁looser 1
▁informative 1
▁emp 1
▁seriously 1
▁var 1
start 1
▁barb 1
▁chill 1
▁capitals 1
▁cran 1
▁circum 1
▁cru 1
rescent 1
▁toner 1
▁received 1
▁insects 1
▁architectur 1
▁camp 1
▁sliced 1
▁killed 1
▁separately 1
▁lightening 1
▁sixes 1
▁characteristics 1
cho 1
▁crocheting 1
▁recommendations 1
▁clumps 1
▁seek 1
phon 1
orize 1
▁squared 1
▁photographs 1
mary 1
▁packed 1
▁fashioned 1
▁sciences 1
icha 1
▁personalize 1
▁torn 1
▁festivals 1
▁dealerships 1
▁curr 1
▁riders 1
▁mudd 1
▁zo 1
▁pastr 1
verse 1
▁swamps 1
▁runners 1
▁lats 1
ory 1
▁bio 1
ence 1
▁molding 1
ray 1
▁chipp 1
▁spike 1
lent 1
▁nud 1
▁mur 1
▁believ 1
▁replac 1
za 1
dden 1
▁bru 1
▁strik 1
▁nu 1
cla 1
kh 1
▁produc 1
pher 1
olli 1
kin 1
ama 1
▁photograph 1
mph 1
▁buck 1
burns 1
▁supplie 1
▁pitche 1
▁digest 1
▁pant 1
orn 1
▁adapt 1
▁tick 1
wn 1
pinning 1
ugher 1
▁architect 1
▁musc 1
evil 1
▁basi 1
▁sch 1
ford 1
room 1
lanc 1
vice 1
▁nip 1
ngle 1
tangle 1
▁amaz 1
dies 1
pops 1
like 1
▁bind 1
ode 1
▁charl 1
▁digit 1
▁itali 1
card 1
▁revers 1
▁disc 1
mulate 1
▁confuse 1
▁suppose 1
▁junk 1
▁fib 1
▁surviv 1
ghter 1
▁hunt 1
▁buff 1
▁bronze 1
imple 1
▁russel 1
lasses 1
▁fragran 1
▁yog 1
▁sync 1
▁graphi 1
▁lab 1
cycl 1
▁relation 1
▁hawaii 1
▁adventure 1
▁refresh 1
addario 1
propyl 1
rote 1
▁alligator 1
▁antibiotic 1
▁anticipat 1
▁automobile 1
▁backcourt 1
▁blast 1
▁boundaries 1
▁camisole 1
▁chamomile 1
▁colander 1
▁colubridae 1
▁complication 1
▁congesti 1
▁cucumber 1
▁deposit 1
▁descend 1
▁discharge 1
▁distort 1
▁disturb 1
▁doorknob 1
▁duct 1
▁explanat 1
▁footprint 1
▁fuzz 1
▁garnish 1
▁genius 1
▁hallway 1
▁hurry 1
▁input 1
▁intermediate 1
▁keeley 1
▁liqueur 1
▁manifold 1
▁marcel 1
▁monoxide 1
▁obliques 1
▁olympic 1
▁overwhelm 1
▁parasites 1
▁pediatrician 1
▁phrase 1
▁pistol 1
▁pixels 1
▁prominen 1
▁protrude 1
▁puck 1
▁receptacle 1
▁refractometer 1
▁retention 1
▁retouch 1
▁saturn 1
▁scenario 1
▁scrambl 1
▁sludge 1
▁sprocket 1
▁suffer 1
▁summarize 1
▁swivel 1
▁tepee 1
▁tortillas 1
▁treasure 1
▁victim 1
▁wardrobe 1
▁workbench 1
▁claw 1
▁counteract 1
▁kelli 1
▁moderate 1
▁promise 1
▁thief 1
counterclockwise 1
▁acqui 1
▁desert 1
▁mimic 1
▁profit 1
▁rind 1
▁suspen 1
▁advertis 1
▁toxins 1
▁wol 1
▁employee 1
▁nightmare 1
▁piston 1
eaux 1
scope 1
▁crumb 1
▁offstage 1
▁intricate 1
▁substitute 1
▁dragster 1
▁extensive 1
▁confirm 1
▁discipline 1
▁utilit 1
cific 1
▁combining 1
▁blackheads 1
▁fireworks 1
▁carving 1
▁symmetrical 1
▁distille 1
▁knight 1
▁mailbox 1
▁chronicle 1
▁interception 1
aband 1
▁tango 1
▁romantic 1
▁converse 1
restrict 1
▁greenery 1
▁framesi 1
▁wiring 1
▁prescription 1
▁avon 1
▁kink 1
▁bann 1
▁finesse 1
▁urn 1
▁qualif 1
▁elementary 1
ptical 1
▁elli 1
▁delay 1
▁indent 1
▁unpack 1
▁skewers 1
▁script 1
▁patrick 1
▁wiping 1
▁regrow 1
▁fragrance 1
▁scrubbing 1
▁slash 1
▁shelves 1
▁lipslide 1
▁etch 1
▁zin 1
▁optical 1
▁alarm 1
▁whiskers 1
▁excessive 1
▁haul 1
▁ramp 1
▁75 1
▁dj 1
▁sunlight 1
▁eyelashes 1
▁assure 1
▁thinne 1
▁society 1
▁pageant 1
▁portable 1
ponent 1
▁clar 1
▁inspection 1
▁acceptable 1
▁yardage 1
rench 1
▁yeast 1
jing 1
▁goalie 1
▁intent 1
▁basil 1
adam 1
▁eyeball 1
▁orbital 1
▁selv 1
mbled 1
olic 1
▁bandage 1
▁mesh 1
▁grace 1
▁installation 1
▁reflector 1
▁beam 1
▁someplace 1
▁explore 1
mbie 1
▁beaten 1
▁bach 1
▁communicating 1
▁evaluating 1
▁copie 1
▁gal 1
▁lovers 1
▁mono 1
▁conven 1
rising 1
▁poorly 1
▁gesture 1
▁imper 1
▁emil 1
▁panic 1
▁litera 1
▁shim 1
▁lash 1
tional 1
▁mist 1
▁bin 1
▁heartworm 1
▁carrie 1
▁moss 1
▁hint 1
flamma 1
▁pond 1
▁bunches 1
▁flan 1
▁stickers 1
▁clumping 1
▁published 1
▁graden 1
ber 1
▁listener 1
▁orbit 1
▁union 1
▁premi 1
mulated 1
▁accurately 1
▁physically 1
▁successfully 1
▁horizontally 1
▁attacker 1
▁outlet 1
▁gobo 1
▁blown 1
▁pearling 1
▁craz 1
▁crosses 1
▁skyy 1
▁trimmers 1
▁greet 1
▁rafting 1
▁cracked 1
▁beater 1
▁wasp 1
ay 1
sign 1
▁soaked 1
▁cam 1
▁faucets 1
bed 1
▁glid 1
▁ward 1
▁faults 1
▁mushrooms 1
▁richards 1
▁bitter 1
▁repaired 1
▁spen 1
72 1
temporar 1
▁flu 1
40 1
▁celebrat 1
▁flare 1
▁kayaking 1
men 1
luck 1
▁ware 1
▁handled 1
11 1
▁folder 1
▁pun 1
▁dim 1
uk 1
▁saut 1
▁resistan 1
▁ev 1
▁transferr 1
▁elevate 1
▁proportional 1
gu 1
pto 1
▁sunda 1
ina 1
tar 1
lower 1
▁lit 1
lvin 1
rinkle 1
▁riv 1
▁swa 1
pical 1
▁trou 1
▁prepai 1
ith 1
▁distribute 1
▁chlorin 1
▁mate 1
▁pod 1
▁incorporat 1
itted 1
amic 1
▁collapse 1
▁passer 1
▁educat 1
cial 1
▁clump 1
stances 1
▁clue 1
▁parrot 1
▁magazine 1
▁recommendation 1
▁instruction 1
▁32 1
▁shear 1
rg 1
ggle 1
▁lac 1
shin 1
ini 1
▁plea 1
▁prim 1
gged 1
egon 1
▁imagin 1
potting 1
ough 1
▁port 1
▁compos 1
watch 1
made 1
▁damag 1
oil 1
erior 1
sale 1
▁bik 1
dependent 1
▁describ 1
▁adequate 1
▁terribl 1
▁irri 1
▁manufacture 1
▁spoke 1
▁numb 1
▁cylind 1
▁thru 1
▁cogniti 1
▁dispos 1
▁interact 1
▁eyelash 1
▁participa 1
▁brin 1
▁possibilit 1
kay 1
▁convert 1
▁fascinat 1
▁econom 1
▁prun 1
▁advise 1
▁alphabet 1
▁apparent 1
▁arrange 1
▁asleep 1
▁boulder 1
▁casino 1
▁categories 1
▁cinch 1
▁condens 1
▁curriculum 1
▁defrost 1
▁density 1
▁dissolve 1
▁embroider 1
▁encounter 1
▁envelope 1
▁estimat 1
▁frustrating 1
▁garbage 1
▁hickory 1
▁hospital 1
▁illusion 1
▁imperfection 1
▁increment 1
▁kidney 1
▁ligament 1
▁marathon 1
▁merchant 1
▁murderer 1
▁praise 1
▁prayer 1
▁python 1
▁skating 1
▁spatula 1
▁spirit 1
▁spool 1
▁technician 1
▁threshold 1
▁triathlon 1
▁unplug 1
▁utensils 1
▁mustard 1
▁periodically 1
▁saving 1
▁scheme 1
conscious 1
▁harvest 1
▁ferment 1
▁demand 1
▁applies 1
▁freedom 1
▁renovations 1
▁bulk 1
▁cider 1
▁lawyer 1
aneous 1
▁inverted 1
vertebra 1
▁dictate 1
▁neely 1
▁squi 1
▁aesthetic 1
▁magnify 1
azz 1
▁assigned 1
▁dehydration 1
▁shy 1
▁cash 1
▁disposition 1
▁marina 1
▁liberal 1
▁froth 1
▁dash 1
▁suspect 1
▁metabolism 1
▁ruff 1
▁deny 1
▁doubt 1
▁retir 1
▁sandwich 1
▁reinforcement 1
▁constrict 1
▁gust 1
▁lee 1
▁cruise 1
▁peas 1
▁federa 1
▁flexors 1
▁recycle 1
▁indeed 1
▁management 1
▁agreement 1
rtment 1
thetic 1
▁chili 1
▁scott 1
▁caul 1
▁footwear 1
▁james 1
▁fairway 1
▁vein 1
▁drift 1
▁saucers 1
▁unlimited 1
▁hung 1
▁hassle 1
▁effortless 1
▁objective 1
▁braking 1
▁improvement 1
▁saltwater 1
▁grasp 1
▁admit 1
▁lug 1
▁brick 1
▁reserv 1
▁repaint 1
▁seaside 1
▁durability 1
▁gross 1
▁plexi 1
▁unlock 1
▁tax 1
▁reform 1
quo 1
▁vibrate 1
▁bland 1
▁buffer 1
▁hatch 1
▁adopt 1
▁removable 1
▁branches 1
orge 1
▁flexion 1
▁mindful 1
▁megan 1
▁discouraged 1
▁versa 1
▁presentation 1
ux 1
▁farthe 1
inel 1
▁signal 1
▁jamm 1
etic 1
▁explod 1
▁guaranteed 1
cardi 1
▁clipped 1
trum 1
▁devote 1
▁duration 1
▁tasty 1
▁filtration 1
onie 1
▁relie 1
▁bod 1
rous 1
▁strongest 1
obb 1
▁misc 1
▁generate 1
▁hotel 1
▁safer 1
bility 1
▁juggl 1
▁asso 1
▁efficiently 1
▁vertically 1
▁restore 1
▁poly 1
ester 1
lame 1
▁initiati 1
▁radiate 1
▁tendon 1
▁joy 1
▁aligned 1
▁attain 1
cola 1
▁brighter 1
▁propa 1
fro 1
▁tensioner 1
▁val 1
▁preserve 1
ration 1
▁del 1
▁driven 1
▁budd 1
▁matting 1
ike 1
▁included 1
▁tro 1
▁poster 1
home 1
▁yum 1
▁heavi 1
▁mart 1
▁bob 1
crump 1
▁remover 1
▁educate 1
lette 1
▁delt 1
enco 1
ular 1
▁cra 1
day 1
▁printer 1
▁glaz 1
limited 1
spect 1
▁ru 1
cky 1
▁execut 1
eviate 1
▁contaminat 1
string 1
▁inflate 1
attended 1
▁contaminate 1
apping 1
ambo 1
▁rud 1
▁elevat 1
▁sander 1
mission 1
▁fad 1
uchi 1
oven 1
▁stripe 1
ngue 1
caution 1
▁memori 1
▁electr 1
▁bal 1
▁lung 1
▁mushroom 1
▁richard 1
igg 1
▁collectible 1
▁pelvi 1
▁enchilada 1
▁interval 1
▁resource 1
▁styl 1
▁characteristic 1
omp 1
▁fault 1
gun 1
▁carol 1
▁figur 1
▁succ 1
▁35 1
▁cli 1
point 1
mega 1
▁sid 1
scar 1
usual 1
fault 1
▁lan 1
production 1
down 1
graduat 1
born 1
house 1
copy 1
fiber 1
space 1
fold 1
rage 1
spin 1
box 1
▁slim 1
▁curv 1
▁annu 1
▁thermo 1
▁dro 1
▁defin 1
bett 1
▁custom 1
ointed 1
▁gestur 1
▁structur 1
sci 1
▁numeric 1
warm 1
▁chrom 1
▁torqu 1
▁encourag 1
▁lou 1
▁guid 1
▁gro 1
▁circl 1
▁discourage 1
▁refine 1
▁behave 1
▁constant 1
lay 1
▁reflex 1
▁hike 1
icia 1
▁histor 1
▁continuous 1
▁sui 1
▁thro 1
▁conceal 1
▁india 1
▁divi 1
▁vegeta 1
▁bush 1
scribe 1
▁avail 1
▁orient 1
▁situat 1
▁interchang 1
▁jewel 1
▁exce 1
▁sculpt 1
umeric 1
avior 1
▁blink 1
▁brainstorm 1
▁erupt 1
▁grappl 1
▁puppet 1
▁refinish 1
▁replenish 1
▁request 1
▁ricta 1
▁unload 1
scotch 1
tchen 1
urethane 1
▁1997 1
▁abilities 1
▁altitude 1
▁appreciate 1
▁arizona 1
▁astrology 1
▁attitude 1
▁australia 1
▁binocular 1
▁blossom 1
▁buttonhole 1
▁cappuccino 1
▁casual 1
▁cinema 1
▁closure 1
▁coffin 1
▁configuration 1
▁confront 1
▁crocosmia 1
▁deadbolt 1
▁dialog 1
▁diarrhea 1
▁enforcement 1
▁entitle 1
▁etcetera 1
▁ethnic 1
▁etouffee 1
▁extruder 1
▁february 1
▁fingerprint 1
▁firefox 1
▁fitzpatrick 1
▁follicle 1
▁hoof 1
▁illegal 1
▁imbalance 1
▁integrity 1
▁intertwine 1
▁intimidating 1
▁invisible 1
▁lubricant 1
▁macrobiotic 1
▁margarine 1
▁monopoly 1
▁northwest 1
▁overpower 1
▁oxidize 1
▁pediatrics 1
▁peppermint 1
▁perspective 1
▁piranha 1
▁preferably 1
▁pregnancy 1
▁president 1
▁privacy 1
▁pursue 1
▁qualifications 1
▁raccoon 1
▁shoelace 1
▁shrunken 1
▁sidewall 1
▁squeamish 1
▁struts 1
▁substance 1
▁surcingle 1
▁swoop 1
▁therapies 1
▁trample 1
▁trunk 1
▁tuft 1
▁tulip 1
▁twenties 1
▁walnut 1
▁advocat 1
▁cartoon 1
▁dairy 1
▁euro 1
▁export 1
▁fidget 1
▁married 1
▁mobber 1
▁quantit 1
▁stich 1
▁venue 1
▁wrestl 1
▁adhere 1
▁chow 1
▁flee 1
▁luke 1
▁retrieve 1
▁yell 1
filament 1
▁biography 1
▁reheat 1
▁unstable 1
▁iodize 1
▁reputa 1
▁shingle 1
▁buddhism 1
▁drown 1
▁feces 1
▁ineffective 1
▁pacing 1
▁tournament 1
▁allergen 1
▁cornbread 1
▁happie 1
▁polymer 1
▁deflat 1
▁sniff 1
▁infra 1
▁foc 1
▁skillet 1
▁warranties 1
humming 1
▁fried 1
▁011 1
▁ventilat 1
konasana 1
▁holga 1
ylic 1
▁tannin 1
▁dishwash 1
▁lick 1
▁vocaliz 1
▁depression 1
▁instant 1
▁fudge 1
▁oops 1
▁198 1
edited 1
▁forgotten 1
▁dandy 1
▁wakeboard 1
agger 1
occa 1
▁bruise 1
▁decaffeinated 1
▁investment 1
▁peonies 1
▁toxic 1
▁99 1
▁mommy 1
▁colb 1
▁subway 1
▁clark 1
▁snip 1
▁pastern 1
▁progressive 1
metics 1
▁steak 1
▁assess 1
▁nozzle 1
▁bold 1
▁poop 1
▁vacat 1
leopa 1
▁daddy 1
▁broker 1
▁darkroom 1
▁defuse 1
▁foolish 1
▁spit 1
▁spout 1
▁cancer 1
▁scarves 1
iffin 1
▁arterial 1
▁undone 1
▁sanit 1
▁rasp 1
▁cabin 1
bby 1
▁genre 1
▁handyman 1
▁aromatic 1
▁stripped 1
▁flock 1
▁inher 1
▁bushes 1
▁uncle 1
▁template 1
▁moisten 1
▁jose 1
▁magnified 1
▁robin 1
▁walt 1
▁implementation 1
▁calligrapher 1
▁kidding 1
plugged 1
terate 1
▁booth 1
rift 1
▁apron 1
▁secretion 1
▁sailor 1
▁granular 1
▁casing 1
▁scientist 1
▁parry 1
▁braise 1
▁unweight 1
▁hunter 1
▁stubb 1
▁fid 1
▁gau 1
▁nutrition 1
▁playback 1
▁neon 1
▁expose 1
▁holl 1
▁pith 1
▁ingest 1
▁effectiveness 1
▁contraction 1
bster 1
▁electricity 1
ionate 1
▁geometr 1
▁behaved 1
▁beforehand 1
▁negotiating 1
▁pleasant 1
▁evaluate 1
▁guill 1
▁roman 1
▁breakup 1
▁bible 1
▁retract 1
▁junkie 1
▁booster 1
▁relev 1
▁kerry 1
uzzle 1
▁insulated 1
▁correction 1
▁fuss 1
nancy 1
▁accordingly 1
addle 1
▁variable 1
cide 1
▁potter 1
vian 1
▁scraper 1
cepti 1
▁isolated 1
▁distracting 1
▁bog 1
plies 1
▁lubricat 1
▁darken 1
▁usual 1
▁burd 1
ially 1
ently 1
▁barne 1
▁usage 1
▁lessen 1
▁recovery 1
▁backpacker 1
▁enjoyable 1
▁tangled 1
▁brewer 1
▁backfield 1
▁stranded 1
▁coal 1
▁belay 1
▁gran 1
▁reliev 1
▁pete 1
ige 1
▁travers 1
▁signaling 1
▁climber 1
▁handful 1
ately 1
▁protector 1
▁massa 1
▁tann 1
▁combo 1
▁viru 1
omaha 1
▁whitener 1
▁fell 1
▁crawler 1
villa 1
▁entre 1
▁stacked 1
▁bowler 1
▁lind 1
adonna 1
▁obstruct 1
▁dancer 1
▁switches 1
▁controller 1
minate 1
▁pleat 1
mber 1
▁paddler 1
ib 1
oyl 1
olin 1
ano 1
▁kerr 1
itud 1
lav 1
▁raci 1
dio 1
▁cautio 1
▁cultur 1
gate 1
▁arrive 1
▁gree 1
▁patien 1
▁protecti 1
▁stabiliz 1
ego 1
▁siz 1
ram 1
claim 1
ravel 1
aren 1
▁baker 1
▁legg 1
▁cub 1
▁compromis 1
gging 1
▁resolve 1
topi 1
▁terr 1
▁capi 1
▁woke 1
▁slo 1
▁snapp 1
▁mobil 1
▁fog 1
▁logic 1
mmuni 1
▁martin 1
▁cooperati 1
▁preservati 1
▁arriv 1
▁attend 1
urb 1
lov 1
ssip 1
▁faucet 1
▁repetition 1
▁carrot 1
onic 1
▁mineral 1
▁article 1
▁origin 1
iva 1
▁unnecessar 1
astic 1
ographic 1
▁era 1
▁shi 1
essive 1
▁formula 1
▁dar 1
▁tickl 1
ickers 1
▁analy 1
liz 1
piece 1
▁din 1
grow 1
stairs 1
▁refu 1
foot 1
▁tradition 1
▁secur 1
▁cul 1
undo 1
still 1
voca 1
▁motorcycl 1
igno 1
▁zoo 1
sheet 1
▁tackl 1
▁slee 1
▁boost 1
eased 1
▁nation 1
ken 1
▁frequenc 1
▁opportunit 1
▁approve 1
ood 1
▁yea 1
▁definite 1
▁multipl 1
our 1
▁greas 1
issi 1
▁remind 1
ption 1
▁blu 1
▁intestin 1
▁viol 1
scription 1
▁affiliat 1
emerge 1
▁chronic 1
▁argu 1
clutter 1
tensive 1
▁disapp 1
▁dupli 1
▁exacerbat 1
▁shannon 1
responsibilities 1
▁acetone 1
▁advisable 1
▁apprais 1
▁artifact 1
▁blaze 1
▁bouquet 1
▁canada 1
▁capabilities 1
▁carniv 1
▁cheerlead 1
▁chestnut 1
▁climax 1
▁conclusion 1
▁detriment 1
▁discomfort 1
▁dispenser 1
▁elaborate 1
▁fajita 1
▁fencing 1
▁forefinger 1
▁fridge 1
▁frustrated 1
▁grime 1
▁grommet 1
▁handkerchief 1
▁hunch 1
▁inflammation 1
▁iridescen 1
▁library 1
▁margin 1
▁mathematic 1
▁miserable 1
▁mosquito 1
▁oasis 1
▁ointment 1
▁peralite 1
▁peripheral 1
▁petunia 1
▁placket 1
▁pouch 1
▁predictable 1
▁quadrup 1
▁reattach 1
▁revolv 1
▁sanitizer 1
▁scheduling 1
▁seatbelt 1
▁shrink 1
▁silence 1
▁telegraph 1
▁workshop 1
▁capelet 1
▁diagram 1
▁editing 1
▁interpret 1
▁microphone 1
▁nourish 1
▁preheat 1
▁shank 1
▁shortstop 1
▁ultra 1
▁watercolor 1
▁abrasive 1
▁goofy 1
▁gymnastics 1
▁helmet 1
▁leap 1
▁elliot 1
▁limon 1
▁palpat 1
▁among 1
▁sexual 1
lerate 1
▁chopsticks 1
▁dorsi 1
arda 1
▁accentuate 1
▁slippery 1
▁oval 1
▁agitat 1
▁manipulati 1
▁illuminat 1
▁cluttered 1
▁panda 1
▁shri 1
▁penny 1
▁peck 1
▁workstation 1
acci 1
▁navasana 1
▁judgment 1
▁puppies 1
▁trauma 1
scilla 1
▁spell 1
▁sacrum 1
▁liking 1
▁antibodies 1
▁surfboard 1
▁modifie 1
▁swallow 1
▁1800 1
▁draft 1
▁distinctive 1
▁dumb 1
▁confinement 1
▁stern 1
▁habitat 1
▁precaution 1
▁stylus 1
▁hyper 1
▁description 1
▁punish 1
▁nowhere 1
▁expertise 1
▁heave 1
▁monst 1
▁drunk 1
▁streamline 1
▁overlapping 1
▁talent 1
▁pleasing 1
▁ribbing 1
▁mitt 1
▁tech 1
▁reservation 1
▁pris 1
▁interaction 1
dual 1
▁fanc 1
liance 1
▁juli 1
▁motivation 1
▁bunnies 1
▁linda 1
poxy 1
▁intestines 1
▁cognition 1
safa 1
▁brother 1
▁linger 1
▁gargle 1
▁nig 1
▁mediated 1
▁restriction 1
▁mcc 1
▁ripping 1
▁brig 1
▁deficiency 1
▁penalt 1
▁furry 1
▁undercut 1
▁thrust 1
▁uv 1
▁traction 1
▁coarseness 1
cient 1
▁universe 1
▁transmit 1
rine 1
▁twin 1
chro 1
▁symbolic 1
▁illness 1
▁seg 1
▁peon 1
▁semina 1
▁flavorful 1
▁accountant 1
▁maple 1
▁gunk 1
▁explorer 1
▁kindling 1
▁funky 1
▁unevenly 1
▁industries 1
▁hiker 1
▁frequency 1
▁payment 1
▁heavily 1
▁ballet 1
▁adequately 1
▁unto 1
▁bald 1
▁buddy 1
▁concer 1
▁brace 1
immers 1
novation 1
▁kil 1
▁parka 1
▁lobe 1
▁drier 1
▁masher 1
▁flak 1
▁morse 1
▁rung 1
▁medal 1
▁shinn 1
finite 1
▁hue 1
clemen 1
hine 1
finance 1
▁veg 1
▁erase 1
nnier 1
oline 1
aque 1
rolling 1
uff 1
▁voi 1
▁hugg 1
▁presen 1
▁preserv 1
arbo 1
fusion 1
donna 1
▁cooper 1
▁submi 1
▁buddh 1
▁recogniz 1
▁impressi 1
uchin 1
▁pati 1
▁sli 1
▁maximiz 1
▁lathe 1
rough 1
uddle 1
▁manu 1
▁octo 1
rude 1
rik 1
▁teache 1
pack 1
bury 1
hen 1
▁chok 1
▁russia 1
itz 1
▁rins 1
obic 1
idi 1
umph 1
ddha 1
▁rig 1
▁polit 1
dressed 1
ptic 1
disc 1
cating 1
▁pursua 1
▁scru 1
▁craw 1
▁trimmer 1
▁insect 1
▁emotion 1
▁distraction 1
▁scallop 1
▁stair 1
▁folk 1
▁hamstring 1
▁symptom 1
iving 1
▁spli 1
▁tai 1
ebri 1
▁raisin 1
position 1
▁folia 1
ucky 1
formative 1
▁patti 1
amine 1
break 1
ification 1
▁distract 1
place 1
active 1
▁translat 1
cam 1
▁sigh 1
lash 1
filtration 1
raft 1
graden 1
science 1
▁pierc 1
vision 1
grav 1
surge 1
wash 1
behavior 1
choke 1
bulbs 1
brew 1
familiar 1
shake 1
tube 1
suit 1
▁ceil 1
market 1
cast 1
▁inspir 1
mother 1
dating 1
alone 1
clear 1
lunge 1
tail 1
life 1
cook 1
▁jam 1
vention 1
▁judg 1
▁nurs 1
▁chocolat 1
▁surfac 1
▁woo 1
▁capacit 1
▁uneven 1
▁imfor 1
▁vibrat 1
▁immediate 1
▁colo 1
▁sai 1
▁tumble 1
▁extrem 1
ermo 1
▁plex 1
noli 1
▁nutritio 1
▁remin 1
▁comput 1
rling 1
▁retail 1
▁porta 1
▁shelv 1
vator 1
▁hydra 1
▁construct 1
caffeinated 1
meg 1
umpi 1
▁disinfect 1
▁differ 1
▁sacr 1
▁dehydrate 1
whit 1
▁plie 1
▁uti 1
▁automat 1
disciplin 1
ebra 1
▁stampin 1
pronounce 1
commod 1
cumulati 1
limina 1
▁chick 1
▁bargain 1
▁buzz 1
▁frown 1
▁plow 1
▁sprawl 1
▁struggl 1
ashab 1
hua 1
nkets 1
ontraindications 1
ouettes 1
responsive 1
satisfaction 1
sequent 1
utto 1
▁360 1
▁abnormal 1
▁academic 1
▁academy 1
▁acclimated 1
▁agility 1
▁airbrush 1
▁albin 1
▁allergy 1
▁arpeggiate 1
▁astronomy 1
▁atmosphere 1
▁backflip 1
▁bathtub 1
▁belvedere 1
▁berkeley 1
▁biomechanic 1
▁boyfriend 1
▁carotenoid 1
▁championship 1
▁choreograph 1
▁cigarettes 1
▁civiliz 1
▁clothespin 1
▁cochlea 1
▁collag 1
▁conformational 1
▁connelly 1
▁constraints 1
▁cyanotype 1
▁database 1
▁defects 1
▁diagnostic 1
▁diploma 1
▁dread 1
▁edition 1
▁editor 1
▁elephant 1
▁enlargement 1
▁enthusias 1
▁ergot 1
▁evacuati 1
▁evidence 1
▁facilitate 1
▁fahrenheit 1
▁feisty 1
▁firewall 1
▁fixtures 1
▁flimsy 1
▁futura 1
▁gallery 1
▁genetic 1
▁germinate 1
▁girdle 1
▁girlfriend 1
▁glitch 1
▁handwriting 1
▁heroscape 1
▁horsehair 1
▁identity 1
▁intrinsically 1
▁inventory 1
▁kernel 1
▁kohlrabi 1
▁lanka 1
▁lecture 1
▁meerkat 1
▁mexico 1
▁military 1
▁munro 1
▁nonirritating 1
▁overturn 1
▁pajama 1
▁parakeet 1
▁pennsylvania 1
▁physics 1
▁physio 1
▁pizzazz 1
▁poutier 1
▁predator 1
▁principal 1
▁quadricep 1
▁quaker 1
▁reception 1
▁refracto 1
▁refrigerate 1
▁repertoire 1
▁repetitive 1
▁revised 1
▁sansevieria 1
▁scapula 1
▁scavenge 1
▁schnapps 1
▁shovel 1
▁shroud 1
▁slumped 1
▁snail 1
▁sneezing 1
▁sommelier 1
▁sparring 1
▁spongy 1
▁stadium 1
▁steffi 1
▁stockbroker 1
▁submissive 1
▁substrate 1
▁surgical 1
▁sushi 1
▁symphony 1
▁thirsty 1
▁tiffany 1
▁toothpick 1
▁tragic 1
▁trapezi 1
▁troubleshooting 1
▁turbine 1
▁turtleneck 1
▁vibran 1
▁vicinity 1
▁victorian 1
▁vivi 1
▁whirl 1
▁whirlpool 1
▁whistle 1
▁whitley 1
563 1
ndaws 1
▁bruising 1
▁bureau 1
▁cruising 1
▁disrupti 1
▁gomukasan 1
▁insulin 1
▁laminati 1
▁luxur 1
▁mould 1
▁overlook 1
▁statistic 1
▁citr 1
▁corona 1
▁crayon 1
▁deriv 1
▁desktop 1
▁ebay 1
▁mcat 1
▁rudder 1
▁trellis 1
▁zig 1
metric 1
▁intro 1
▁windmill 1
▁attire 1
▁crumple 1
▁extent 1
▁flier 1
▁storytell 1
recipi 1
▁flamingosis 1
▁glor 1
▁orchid 1
neti 1
▁rico 1
▁rehearsals 1
▁serum 1
▁exfoliant 1
▁referee 1
▁specialist 1
demic 1
▁lisp 1
▁shimano 1
▁arrest 1
▁retrea 1
▁dispers 1
▁volca 1
▁alexson 1
▁pigtail 1
▁degas 1
▁sabre 1
▁slam 1
▁vegetation 1
▁sanct 1
▁bomb 1
▁noisy 1
ometer 1
▁pedest 1
▁pressurize 1
▁vending 1
▁belgium 1
▁capsul 1
▁eyelets 1
▁glands 1
▁blunt 1
nique 1
▁fraud 1
ddar 1
▁antholog 1
▁employment 1
spid 1
▁implant 1
tinker 1
▁vinosity 1
ecuti 1
▁overheat 1
▁scab 1
▁portability 1
▁thorn 1
▁detr 1
▁leach 1
diction 1
▁counselor 1
▁negotiation 1
▁enrich 1
▁socialize 1
sition 1
▁dame 1
▁prettie 1
▁chaff 1
▁interactive 1
▁myra 1
▁attenti 1
▁observ 1
culti 1
▁refuse 1
▁peat 1
▁ariel 1
▁separation 1
visa 1
▁solu 1
▁mohee 1
▁macro 1
▁gouge 1
▁corp 1
▁supervision 1
▁undershirt 1
▁flapp 1
▁mound 1
▁chiropractic 1
▁scarring 1
bec 1
▁interchangeabl 1
▁igniter 1
▁fetch 1
▁camas 1
avage 1
▁dramatically 1
orrow 1
▁establishment 1
q 1
