<unk>	0
▁the	-3.19099
▁to	-3.29408
▁you	-3.45948
'	-3.49807
▁and	-3.56525
▁a	-3.6407
s	-3.67164
▁it	-3.93193
▁that	-4.01803
▁i	-4.06614
▁of	-4.0984
▁is	-4.19513
▁in	-4.42741
▁your	-4.50405
▁going	-4.53821
▁we	-4.61483
▁this	-4.64534
▁so	-4.67333
re	-4.71791
▁on	-4.84488
▁can	-4.94037
▁have	-4.98081
ing	-5.10167
▁with	-5.1068
▁be	-5.13329
▁want	-5.17194
▁are	-5.19075
▁just	-5.19333
▁for	-5.19648
▁do	-5.2423
t	-5.24506
▁	-5.27614
▁or	-5.35258
f	-5.36288
▁up	-5.37862
m	-5.42346
▁like	-5.50418
▁one	-5.53952
▁get	-5.54154
▁they	-5.5443
▁what	-5.55539
▁there	-5.60002
▁now	-5.62084
▁out	-5.62533
▁as	-5.64419
▁little	-5.64892
▁make	-5.67046
▁here	-5.67586
▁go	-5.69757
▁then	-5.73001
▁but	-5.744
▁not	-5.77874
▁about	-5.79877
▁when	-5.80674
▁all	-5.85502
ed	-5.87792
▁my	-5.88107
▁how	-5.88603
▁will	-5.89028
▁back	-5.9811
▁at	-5.98314
▁use	-5.98649
▁some	-5.99607
▁right	-6.0202
▁really	-6.02605
▁don	-6.03524
ll	-6.03887
▁down	-6.03934
very	-6.05597
▁because	-6.07896
▁way	-6.09177
▁our	-6.12186
▁from	-6.12941
▁take	-6.14843
▁more	-6.18808
▁put	-6.19926
▁an	-6.22172
ve	-6.22719
▁good	-6.23152
▁see	-6.23323
▁them	-6.25853
▁into	-6.27123
▁sure	-6.30572
y	-6.31281
▁also	-6.3447
▁bit	-6.34998
▁need	-6.3958
▁would	-6.39826
▁know	-6.40855
▁lot	-6.41076
ly	-6.43099
d	-6.43679
▁over	-6.46424
▁these	-6.46783
▁two	-6.48759
▁off	-6.48927
▁kind	-6.48947
▁other	-6.49717
▁where	-6.5127
▁thing	-6.53383
▁which	-6.53678
▁time	-6.56044
▁look	-6.56753
▁he	-6.60288
▁hair	-6.60565
▁keep	-6.60765
e	-6.61865
▁first	-6.6386
▁has	-6.64919
▁any	-6.66244
▁side	-6.66413
▁let	-6.665
▁actually	-6.66513
▁again	-6.66994
▁got	-6.69177
▁come	-6.69555
▁start	-6.71544
▁nice	-6.7155
▁different	-6.7175
▁around	-6.71998
▁her	-6.74837
▁ball	-6.75062
▁things	-6.78984
▁through	-6.82812
▁by	-6.82938
▁much	-6.83993
▁three	-6.85553
▁people	-6.86202
▁well	-6.88578
▁their	-6.89529
▁talk	-6.90552
▁give	-6.94564
▁m	-6.9486
▁hand	-6.95272
▁water	-6.95683
▁something	-6.97106
▁important	-6.99956
▁those	-7.01022
▁work	-7.01599
n	-7.01714
▁top	-7.01966
▁show	-7.03063
▁next	-7.04313
▁step	-7.06141
▁even	-7.08137
▁most	-7.10127
▁once	-7.10877
▁using	-7.11955
▁me	-7.14243
er	-7.14779
ight	-7.14874
▁doing	-7.16013
▁find	-7.17431
▁same	-7.17786
▁okay	-7.17787
▁body	-7.18428
▁another	-7.1998
▁she	-7.20894
▁hi	-7.21486
▁alway	-7.21691
▁pull	-7.22089
▁too	-7.22154
if	-7.23962
▁left	-7.25612
▁could	-7.25615
▁line	-7.26406
▁try	-7.26959
▁say	-7.27841
▁before	-7.29307
▁color	-7.29735
▁great	-7.29844
▁part	-7.30771
▁place	-7.31138
▁turn	-7.31549
▁cut	-7.31622
▁was	-7.32022
▁than	-7.32609
▁help	-7.32615
▁add	-7.33389
▁ahead	-7.38487
al	-7.39163
▁think	-7.39378
▁no	-7.40643
▁hold	-7.40839
▁should	-7.41022
▁today	-7.42937
▁type	-7.43191
▁head	-7.43574
▁pretty	-7.45897
l	-7.47286
▁may	-7.47778
▁skin	-7.47781
▁bring	-7.4783
▁forward	-7.49962
▁front	-7.50216
▁end	-7.50242
▁maybe	-7.50927
▁foot	-7.51094
▁en	-7.51561
▁four	-7.52707
▁his	-7.52925
▁set	-7.53
▁open	-7.53014
ble	-7.55554
▁move	-7.55575
▁point	-7.55914
▁long	-7.56153
▁doesn	-7.56859
▁piece	-7.57298
▁many	-7.59503
▁called	-7.59833
▁getting	-7.60501
▁done	-7.61314
▁inside	-7.62183
▁every	-7.62945
▁feel	-7.64131
▁big	-7.64409
▁together	-7.65645
▁feet	-7.65865
▁only	-7.6668
▁tell	-7.66701
▁hands	-7.67242
▁name	-7.67523
▁straight	-7.68345
▁him	-7.68429
▁still	-7.6879
▁best	-7.69544
▁sometimes	-7.69853
▁does	-7.70451
▁push	-7.70499
▁paper	-7.70501
▁dog	-7.70914
▁each	-7.7115
▁bottom	-7.71369
▁been	-7.72238
▁leg	-7.72708
▁area	-7.73429
▁buy	-7.737
▁five	-7.7402
▁small	-7.74615
▁remember	-7.74919
▁basically	-7.75149
▁oil	-7.75181
▁play	-7.75295
▁after	-7.7683
r	-7.77017
▁used	-7.77215
▁usually	-7.77903
▁probably	-7.78602
▁away	-7.79427
▁light	-7.79517
▁who	-7.7976
▁car	-7.80453
▁glass	-7.81432
▁face	-7.82289
▁coming	-7.82614
▁half	-7.82668
▁clean	-7.83076
▁making	-7.83159
▁goes	-7.83501
▁white	-7.84544
▁yourself	-7.85896
▁comes	-7.86135
▁new	-7.8618
▁lift	-7.86521
▁times	-7.86536
▁high	-7.87433
▁throw	-7.88357
▁person	-7.88644
▁looking	-7.88648
▁brush	-7.88899
es	-7.88979
▁talking	-7.89297
▁had	-7.89509
▁day	-7.89623
▁hit	-7.90087
▁while	-7.90563
▁fish	-7.90724
▁anything	-7.90806
▁position	-7.90812
▁easy	-7.91604
▁ready	-7.9193
▁course	-7.93219
▁everything	-7.94037
▁clip	-7.94533
▁better	-7.94862
▁enough	-7.94862
▁made	-7.94879
▁tea	-7.95517
▁hard	-7.96425
▁size	-7.97386
▁between	-7.98799
▁under	-7.98803
▁real	-7.99094
▁basic	-7.99444
▁working	-7.99838
▁practice	-8.00536
▁second	-8.00944
▁call	-8.01721
▁number	-8.02154
▁being	-8.02526
▁create	-8.02739
▁six	-8.02857
▁dry	-8.03124
▁kick	-8.04335
▁1	-8.04554
▁couple	-8.05014
▁why	-8.05014
▁flat	-8.05036
▁both	-8.05153
▁home	-8.05944
▁stay	-8.06197
▁eye	-8.06832
▁run	-8.0713
▁jump	-8.07186
▁last	-8.07509
▁us	-8.07808
▁base	-8.08262
▁close	-8.08377
▁am	-8.08383
▁either	-8.08438
▁stick	-8.08605
o	-8.08877
▁already	-8.09065
▁trying	-8.09816
▁cause	-8.11002
▁whatever	-8.11197
▁roll	-8.11351
▁paint	-8.11592
▁2	-8.11668
on	-8.12387
▁draw	-8.13089
▁center	-8.13381
▁order	-8.13621
▁few	-8.14287
a	-8.14377
▁pick	-8.14737
▁room	-8.14974
▁ok	-8.151
▁looks	-8.15362
▁string	-8.15526
▁wire	-8.15877
▁sort	-8.15983
▁were	-8.16004
▁arms	-8.16094
▁whole	-8.16325
▁ground	-8.1704
▁board	-8.17272
▁touch	-8.17889
st	-8.18662
▁fun	-8.18818
▁low	-8.1936
▁shot	-8.19743
▁case	-8.19767
▁outside	-8.20246
▁far	-8.20368
▁horse	-8.21204
▁did	-8.21507
▁apply	-8.21581
▁means	-8.21832
▁unti	-8.21998
▁wax	-8.22355
▁check	-8.22381
▁middle	-8.22668
▁s	-8.22806
▁store	-8.2327
▁example	-8.23767
▁game	-8.23818
▁drop	-8.24141
▁alright	-8.24506
▁legs	-8.24655
▁pass	-8.24695
▁black	-8.25626
▁green	-8.25628
▁wood	-8.26045
▁shoulder	-8.26302
▁own	-8.26667
▁chest	-8.2676
▁edge	-8.27678
▁learn	-8.29336
▁particular	-8.29841
▁k	-8.30586
▁neck	-8.30622
▁ask	-8.30936
▁arm	-8.31301
▁stretch	-8.3218
▁break	-8.32547
▁milk	-8.32619
▁tip	-8.32679
▁un	-8.32755
▁knees	-8.32883
▁underneath	-8.33022
▁air	-8.33319
▁moving	-8.33427
▁comfortable	-8.33429
▁become	-8.33501
▁3	-8.33814
▁simple	-8.34105
▁someone	-8.34242
▁types	-8.34337
▁process	-8.34609
▁full	-8.34821
▁sit	-8.34973
▁o	-8.3516
▁re	-8.35794
▁floor	-8.35892
▁natural	-8.3615
▁plant	-8.36695
▁fire	-8.36726
▁lower	-8.37264
▁fine	-8.37538
▁obviously	-8.37587
having	-8.37985
▁grab	-8.37993
▁simpl	-8.3801
▁won	-8.38432
▁leave	-8.38452
▁makes	-8.39132
▁old	-8.39202
▁bag	-8.39264
▁pressure	-8.39281
▁quick	-8.39897
▁minutes	-8.4031
▁card	-8.40523
▁stop	-8.40567
▁said	-8.40582
▁putting	-8.40657
▁cat	-8.40831
▁tak	-8.413
▁change	-8.4141
▁wear	-8.41538
▁control	-8.41829
▁iron	-8.41992
▁hip	-8.42066
▁notice	-8.4219
▁shoulders	-8.42222
▁mean	-8.42252
▁almo	-8.42329
▁red	-8.42369
▁allow	-8.42562
▁love	-8.42638
▁ways	-8.42731
▁knee	-8.4287
▁door	-8.42872
never	-8.43352
▁pieces	-8.43354
▁segment	-8.43362
▁without	-8.43362
▁shape	-8.4344
ic	-8.43997
▁hot	-8.44106
▁stuff	-8.44398
▁reason	-8.44766
▁sand	-8.45006
▁hole	-8.45248
▁colors	-8.45252
▁press	-8.45317
▁choose	-8.45526
▁tight	-8.45564
▁remove	-8.45722
▁regular	-8.46235
▁t	-8.46407
▁design	-8.46526
▁weight	-8.4666
▁ten	-8.46796
▁behind	-8.46867
▁coat	-8.473
▁space	-8.4735
▁wall	-8.47786
▁cup	-8.4814
▁heat	-8.48203
▁definitely	-8.48272
▁bat	-8.48851
▁onto	-8.48919
▁rest	-8.48978
▁proper	-8.49049
▁house	-8.4905
▁cross	-8.49172
▁exact	-8.49215
▁across	-8.49215
▁table	-8.49249
▁exhale	-8.49693
▁level	-8.50014
▁amount	-8.50169
▁such	-8.5017
▁twist	-8.50224
▁along	-8.5032
▁inch	-8.50505
▁cover	-8.50583
▁wheel	-8.51035
ther	-8.51095
▁4	-8.51483
▁hook	-8.52302
▁warm	-8.52941
able	-8.52945
▁angle	-8.53103
▁keeping	-8.53299
▁speed	-8.53584
▁seven	-8.54067
▁catch	-8.54938
▁quit	-8.55085
▁switch	-8.55925
▁idea	-8.56458
▁guy	-8.5664
▁certain	-8.56963
▁whe	-8.57126
▁nail	-8.57157
▁years	-8.57284
ion	-8.57472
▁pot	-8.57752
▁walk	-8.58062
▁glue	-8.58154
▁easier	-8.58674
▁longer	-8.58893
▁section	-8.59292
▁cast	-8.59652
▁surface	-8.59729
▁style	-8.59919
▁track	-8.60256
▁especially	-8.60785
▁lines	-8.61375
▁stand	-8.61988
▁direction	-8.62024
▁product	-8.62034
▁key	-8.62419
▁system	-8.6257
▁book	-8.62613
▁beautiful	-8.62774
▁image	-8.63138
▁box	-8.63299
est	-8.63326
▁care	-8.63336
or	-8.63414
▁tool	-8.63946
▁print	-8.63982
▁large	-8.63996
▁sugar	-8.64038
▁fingers	-8.64177
▁short	-8.64511
▁inhale	-8.64604
▁spin	-8.64712
▁e	-8.64841
▁watch	-8.65112
▁tail	-8.65136
▁happens	-8.65157
▁boat	-8.65445
▁clear	-8.65553
▁block	-8.657
▁running	-8.6571
▁food	-8.65981
ation	-8.66127
▁eyes	-8.66329
▁less	-8.66421
▁often	-8.66745
▁hoop	-8.6683
▁rope	-8.67158
▁mind	-8.67395
▁depending	-8.67433
▁tape	-8.67489
▁exercise	-8.67712
▁clay	-8.67971
▁life	-8.68553
▁extra	-8.68734
▁toward	-8.69539
▁lay	-8.69547
▁child	-8.69705
▁free	-8.69705
▁wind	-8.7076
▁cards	-8.70765
▁eight	-8.70765
▁cool	-8.70791
▁else	-8.70879
▁blue	-8.70885
▁vehicle	-8.7147
▁somebody	-8.72065
▁cutting	-8.72103
▁itself	-8.72664
▁massage	-8.72858
▁fill	-8.73077
▁power	-8.73263
▁fast	-8.73781
▁reach	-8.73883
▁belt	-8.73884
ever	-8.74242
▁fabric	-8.74482
▁plastic	-8.74483
▁slide	-8.75021
▁single	-8.75096
▁bad	-8.75137
▁general	-8.75209
▁fit	-8.75378
▁tend	-8.75503
▁job	-8.75632
▁helps	-8.75707
p	-8.75926
▁mix	-8.75957
en	-8.76091
▁pin	-8.76104
▁corner	-8.76317
▁thumb	-8.76334
▁button	-8.76343
▁possible	-8.76382
▁tire	-8.76382
▁smooth	-8.76711
▁frame	-8.76959
▁soft	-8.77114
▁g	-8.77117
▁finish	-8.7732
▁de	-8.77559
▁build	-8.77602
▁ear	-8.77616
▁hips	-8.78038
▁careful	-8.78062
▁jack	-8.78105
▁money	-8.78221
▁teeth	-8.78222
▁gets	-8.78507
▁seat	-8.78579
▁5	-8.79269
▁double	-8.79499
▁collar	-8.80144
▁root	-8.8018
▁bend	-8.80278
▁against	-8.80499
▁guys	-8.80751
c	-8.80834
▁bird	-8.80863
▁though	-8.81102
▁forth	-8.81211
▁powder	-8.81447
▁b	-8.81475
▁follow	-8.81484
▁completely	-8.81517
▁properly	-8.81676
▁ever	-8.81931
▁match	-8.82098
▁slightly	-8.82147
▁test	-8.82165
▁lip	-8.8222
▁business	-8.82767
▁least	-8.82767
▁nothing	-8.82769
▁p	-8.82804
▁night	-8.83436
▁smaller	-8.83667
▁started	-8.83758
▁golf	-8.83888
▁dark	-8.84008
▁swing	-8.84198
▁club	-8.84258
▁problem	-8.84275
▁matter	-8.848
▁later	-8.84895
el	-8.85343
▁pay	-8.85479
▁fold	-8.85751
h	-8.86073
▁begin	-8.86342
▁starting	-8.86541
▁mirror	-8.86835
▁release	-8.86835
▁works	-8.86902
▁measure	-8.87427
▁school	-8.8753
▁since	-8.8753
▁difference	-8.87753
▁comb	-8.87937
▁form	-8.88072
ness	-8.88232
in	-8.88279
▁c	-8.88402
▁pose	-8.88494
▁picture	-8.88501
▁movement	-8.88534
▁hundred	-8.88933
▁sever	-8.88993
▁motion	-8.89211
▁customer	-8.89212
▁recommend	-8.89339
▁slow	-8.89402
▁ring	-8.8949
▁length	-8.89626
▁instead	-8.89642
▁local	-8.89643
ty	-8.89724
less	-8.8997
▁muscles	-8.89974
▁pour	-8.90362
▁curl	-8.90908
▁consider	-8.91058
▁wine	-8.91496
▁drink	-8.91507
▁coffee	-8.91801
▁8	-8.91912
▁normal	-8.92369
an	-8.92374
▁pop	-8.92506
▁blanket	-8.92531
▁bar	-8.92773
▁computer	-8.92918
▁drill	-8.92954
▁edges	-8.92964
▁pair	-8.93393
▁man	-8.93531
▁rock	-8.93688
▁pattern	-8.93689
▁wash	-8.93873
▁strong	-8.93915
▁perfect	-8.9459
▁fall	-8.94625
▁common	-8.94637
▁main	-8.94755
▁focus	-8.9535
▁painting	-8.95412
▁wet	-8.95571
▁slowly	-8.95677
▁wrist	-8.95965
▁easily	-8.96262
▁typical	-8.96263
▁oh	-8.96289
▁tooth	-8.96366
▁sides	-8.96786
▁spine	-8.9682
▁d	-8.96899
▁third	-8.97026
▁professional	-8.9703
▁continue	-8.97292
▁teach	-8.97535
▁playing	-8.97553
▁technique	-8.97569
▁punch	-8.97889
▁finger	-8.98375
▁balance	-8.98417
▁deal	-8.98522
▁heavy	-8.9857
▁knife	-8.9857
▁ink	-8.98655
▁parts	-8.98791
wards	-8.98948
▁enjoy	-8.99326
ity	-8.99328
▁wrap	-8.99342
▁everybody	-8.99351
▁sitting	-8.99369
▁larger	-8.99412
▁fact	-8.99625
▁camera	-8.99917
▁eat	-9.00316
▁lips	-9.00793
▁post	-9.00823
▁wide	-9.00893
▁starts	-9.0098
▁hear	-9.01104
▁training	-9.01293
▁heart	-9.01441
▁burn	-9.01695
▁areas	-9.02385
▁loop	-9.0242
▁twenty	-9.02539
▁chicken	-9.02539
▁attention	-9.0254
▁products	-9.0309
▁entire	-9.03352
▁score	-9.03352
▁brown	-9.03366
▁inches	-9.0354
▁deep	-9.03929
▁read	-9.04061
▁group	-9.04088
▁circle	-9.04106
▁found	-9.04154
▁information	-9.04172
▁wrong	-9.04172
▁yellow	-9.04172
▁spray	-9.04172
▁didn	-9.04376
▁round	-9.04607
ies	-9.04849
▁series	-9.04998
▁chocolate	-9.05005
▁garden	-9.05208
▁dur	-9.05361
▁square	-9.05661
▁happen	-9.05749
▁spot	-9.05794
▁rub	-9.05828
▁word	-9.05866
▁handle	-9.06537
▁chain	-9.06656
▁safety	-9.06681
▁nose	-9.06721
▁takes	-9.06941
▁needs	-9.07148
ce	-9.07211
▁difficult	-9.07519
▁orange	-9.07519
▁rice	-9.0752
▁problems	-9.08157
▁steam	-9.08292
▁chair	-9.08371
▁character	-9.08374
▁contact	-9.08374
▁yes	-9.08404
▁blade	-9.08408
▁v	-9.08645
▁drawing	-9.09106
▁leaves	-9.09167
▁battery	-9.09276
▁shoot	-9.09408
us	-9.09506
▁decide	-9.09545
▁kids	-9.09811
▁sun	-9.09847
▁tank	-9.10108
▁belly	-9.10133
th	-9.10588
▁plate	-9.10987
▁video	-9.11057
▁figure	-9.11059
▁demonstrate	-9.11242
▁protect	-9.11244
▁smell	-9.11868
▁filter	-9.11868
▁cold	-9.11871
▁energy	-9.11885
▁fat	-9.11986
▁higher	-9.1214
▁actual	-9.12599
▁cap	-9.12621
▁thin	-9.12737
▁support	-9.1276
▁blood	-9.12769
▁field	-9.12829
▁mark	-9.12866
▁rid	-9.13015
▁w	-9.13034
▁pre	-9.13185
▁days	-9.13331
▁elbow	-9.1384
▁waist	-9.14571
▁world	-9.14572
▁plants	-9.14602
i	-9.14617
▁drive	-9.1462
▁sell	-9.14634
▁toes	-9.14765
▁ice	-9.14939
▁grow	-9.15098
▁discuss	-9.15199
▁treat	-9.15393
▁foundation	-9.15516
▁rod	-9.15525
▁save	-9.15605
▁layer	-9.15789
▁grip	-9.16414
▁guitar	-9.16414
▁medium	-9.16414
▁further	-9.1642
▁towel	-9.16626
▁temperature	-9.16651
▁party	-9.16652
▁7	-9.17338
▁similar	-9.17348
▁bike	-9.17365
▁within	-9.18168
▁prevent	-9.18272
▁serve	-9.18406
▁breath	-9.18647
▁tools	-9.18865
▁hours	-9.18934
▁blend	-9.19211
▁children	-9.19246
▁10	-9.19246
▁trick	-9.194
ur	-9.19455
▁service	-9.19545
▁showing	-9.19754
▁heel	-9.1978
▁above	-9.20207
▁opposite	-9.20207
▁purpose	-9.20545
ers	-9.20549
▁quickly	-9.20567
▁points	-9.20653
▁avoid	-9.20882
▁snow	-9.21172
▁fresh	-9.21177
▁gently	-9.21177
▁worry	-9.21179
▁hitting	-9.21229
▁flavor	-9.21266
▁players	-9.21766
▁flip	-9.22071
▁apart	-9.22151
▁basket	-9.22156
▁family	-9.22157
▁yoga	-9.22159
▁steel	-9.22163
ous	-9.2225
▁standing	-9.22286
ish	-9.22636
▁player	-9.22937
▁specific	-9.23146
▁anywhere	-9.23147
▁everyone	-9.23147
▁rather	-9.2315
▁turning	-9.23309
▁harder	-9.23426
g	-9.23559
▁mat	-9.23884
▁garlic	-9.24147
▁words	-9.24171
▁film	-9.2419
▁faster	-9.24277
▁upper	-9.24317
▁cloth	-9.24552
▁thread	-9.246
▁thinking	-9.25013
▁lead	-9.25046
▁lean	-9.25157
▁lid	-9.25178
▁bigger	-9.25183
▁experience	-9.25292
▁shirt	-9.25628
▁stone	-9.25638
▁live	-9.25764
▁hat	-9.26166
▁fluid	-9.26178
▁palm	-9.26178
▁strap	-9.26731
▁land	-9.26808
▁art	-9.26812
u	-9.27189
▁com	-9.27336
▁material	-9.27789
▁team	-9.28364
▁relax	-9.28388
▁unit	-9.28424
▁sleep	-9.28682
▁minute	-9.28886
▁loose	-9.28944
▁sound	-9.29002
▁cream	-9.29303
▁website	-9.29303
▁raw	-9.29304
k	-9.30075
▁f	-9.30156
▁phone	-9.30367
▁mask	-9.30367
▁necessarily	-9.30371
▁photography	-9.30392
▁wanted	-9.30614
▁juice	-9.30927
▁smoke	-9.31008
▁situation	-9.31022
▁soon	-9.31299
w	-9.31422
▁fair	-9.3144
▁project	-9.31442
▁flash	-9.31443
▁mention	-9.31443
▁holes	-9.32027
ry	-9.32139
▁setting	-9.32163
▁year	-9.32182
▁needle	-9.32425
▁thick	-9.32436
▁understand	-9.32533
▁spend	-9.32542
▁interesting	-9.32795
▁music	-9.33119
▁leather	-9.33628
▁load	-9.33647
▁bid	-9.33792
▁lose	-9.33837
▁wave	-9.33961
▁core	-9.34146
▁toilet	-9.34378
▁sign	-9.34378
▁mouth	-9.34738
▁route	-9.34739
▁bucket	-9.34739
▁hello	-9.3474
▁peel	-9.34757
▁butter	-9.3504
age	-9.35376
▁degree	-9.35582
▁flower	-9.35652
▁write	-9.3583
▁tennis	-9.35863
▁click	-9.35863
▁self	-9.35863
▁saw	-9.35865
▁pen	-9.35899
giving	-9.35965
▁tent	-9.36035
▁flowers	-9.36151
▁grind	-9.36263
▁based	-9.36446
▁hang	-9.36918
▁bunch	-9.36956
▁distance	-9.36999
▁pan	-9.37012
▁tips	-9.37305
▁cleaning	-9.37559
▁fac	-9.37604
▁machine	-9.37848
▁week	-9.37898
▁tension	-9.38065
▁dance	-9.3807
▁foam	-9.38148
▁baby	-9.38167
▁6	-9.38359
▁instance	-9.38396
▁ends	-9.38399
▁kite	-9.39086
▁boom	-9.39179
is	-9.39298
▁record	-9.39311
▁trail	-9.39313
▁jeans	-9.40182
▁20	-9.40185
▁bulb	-9.40301
▁dirt	-9.40304
▁bone	-9.40438
▁stitch	-9.40445
▁sharp	-9.40471
▁shampoo	-9.40488
▁hop	-9.40504
▁steps	-9.40522
▁gray	-9.40539
▁salt	-9.40558
▁bra	-9.40637
▁gone	-9.40648
▁final	-9.40787
▁force	-9.41551
▁rolling	-9.41563
▁shop	-9.41672
▁squeeze	-9.41678
▁standard	-9.41678
▁vodka	-9.41678
▁chance	-9.4168
▁worth	-9.41682
▁beginning	-9.41684
▁city	-9.41699
▁throughout	-9.41745
▁lock	-9.41916
▁wearing	-9.42152
▁finished	-9.42214
▁seen	-9.42667
▁deck	-9.42704
▁pencil	-9.42883
▁return	-9.42883
▁skirt	-9.42883
▁partner	-9.42884
▁guide	-9.42898
▁kinds	-9.43614
▁select	-9.43793
▁correct	-9.43919
▁dish	-9.43945
▁thirt	-9.44098
▁stance	-9.44107
▁height	-9.44227
▁lighter	-9.4451
▁shoes	-9.44584
▁dollars	-9.45065
▁favorite	-9.4523
▁knot	-9.45265
▁dead	-9.45337
▁pitcher	-9.45427
▁map	-9.45629
▁opening	-9.4579
um	-9.45906
▁travel	-9.45975
▁carry	-9.46011
▁develop	-9.46182
▁books	-9.46187
▁detail	-9.46241
▁bak	-9.46449
▁client	-9.4655
▁brake	-9.46553
▁window	-9.46561
▁option	-9.46572
▁drain	-9.46578
▁fake	-9.46587
▁gift	-9.46589
▁credit	-9.46606
ter	-9.46649
▁men	-9.46692
▁went	-9.47035
▁scissors	-9.47387
ia	-9.47414
▁win	-9.47554
▁plan	-9.4761
▁safe	-9.47628
▁stores	-9.47714
▁posture	-9.47823
▁account	-9.47846
▁coconut	-9.47853
▁dribble	-9.47853
▁earlier	-9.47853
ie	-9.4811
▁cook	-9.48166
▁depends	-9.48172
▁blow	-9.48437
▁stain	-9.49133
▁texture	-9.49136
▁yeah	-9.49136
▁rubber	-9.49136
▁wonderful	-9.49137
▁fret	-9.49142
▁tie	-9.49151
▁market	-9.49164
wise	-9.49196
▁trim	-9.49426
▁l	-9.49441
▁degrees	-9.49456
▁believe	-9.49744
▁fashion	-9.50137
▁extend	-9.5015
▁slip	-9.50288
▁attack	-9.5035
▁count	-9.5036
▁building	-9.50394
▁women	-9.50433
▁defense	-9.50434
▁happy	-9.50434
▁band	-9.50458
▁climbing	-9.50591
▁tone	-9.50759
▁pack	-9.5084
▁pro	-9.50873
as	-9.51109
▁learning	-9.51182
▁flow	-9.51185
▁riding	-9.51327
▁special	-9.51334
▁states	-9.51463
▁personal	-9.51652
▁friends	-9.51718
▁major	-9.51749
▁bounce	-9.5175
▁near	-9.5175
▁portion	-9.51751
▁jab	-9.51751
▁maintain	-9.51752
▁baseball	-9.51755
▁normally	-9.52043
▁bent	-9.5215
▁dip	-9.52158
▁15	-9.52374
▁separate	-9.52748
▁thought	-9.52877
▁vari	-9.52956
▁adjust	-9.53052
▁chose	-9.53083
▁moisture	-9.53083
▁cheese	-9.53084
▁winter	-9.53092
▁came	-9.53108
▁negative	-9.53163
▁screw	-9.53231
▁walking	-9.53321
▁train	-9.53734
not	-9.5379
side	-9.53857
▁seconds	-9.539
▁star	-9.54046
▁says	-9.54113
ri	-9.54337
▁bowl	-9.54379
▁liquid	-9.54434
▁microwave	-9.54438
▁provide	-9.54467
ical	-9.54515
▁range	-9.54516
▁breathe	-9.54794
▁skills	-9.55341
▁damage	-9.55659
▁sweep	-9.55804
▁story	-9.55812
▁firm	-9.55825
▁anyway	-9.55838
▁makeup	-9.56013
▁spring	-9.56056
▁cake	-9.56077
▁places	-9.56095
▁letters	-9.56239
▁backwards	-9.56677
▁mascara	-9.57193
▁solid	-9.57194
▁available	-9.57195
▁slice	-9.57222
▁stage	-9.57223
▁determine	-9.57306
▁terms	-9.57416
▁tissue	-9.57421
▁bottle	-9.57446
▁girl	-9.57462
▁elements	-9.57686
▁hey	-9.57946
▁whenever	-9.57949
il	-9.58009
▁appropriate	-9.58601
▁creating	-9.58601
▁equipment	-9.58601
▁lemon	-9.58601
▁somewhere	-9.58601
▁flour	-9.58603
▁dollar	-9.58915
▁state	-9.59526
▁wing	-9.59889
▁tuck	-9.6003
▁value	-9.6003
▁cow	-9.60037
▁act	-9.60147
▁closer	-9.60223
▁stroke	-9.60373
▁taste	-9.60414
▁rinse	-9.60552
▁feels	-9.60608
▁breaking	-9.60781
▁meet	-9.60942
▁tim	-9.61397
▁chord	-9.61479
▁variety	-9.61479
▁litter	-9.6148
▁gear	-9.6148
▁cord	-9.6148
▁race	-9.61482
▁extreme	-9.61487
▁photographer	-9.61494
▁acid	-9.61525
▁cable	-9.61549
x	-9.61572
ping	-9.61611
▁treatment	-9.61817
▁effect	-9.61845
▁question	-9.61871
▁vegetable	-9.61876
▁throwing	-9.62012
▁cooking	-9.62181
▁age	-9.62295
▁hurt	-9.62322
▁model	-9.62368
ian	-9.62504
▁aren	-9.62647
▁audition	-9.6295
▁company	-9.6295
▁florida	-9.6295
▁hopefully	-9.6295
▁opponent	-9.6295
▁spread	-9.6295
▁dust	-9.6295
▁sorry	-9.6295
▁tractor	-9.6295
▁quality	-9.62954
▁fix	-9.62958
▁patient	-9.62991
▁healthy	-9.63126
▁gold	-9.63248
▁beer	-9.63268
▁rat	-9.63292
▁method	-9.63333
▁clock	-9.6345
▁cups	-9.63518
▁strings	-9.63592
▁onion	-9.63733
▁transfer	-9.63945
▁handy	-9.64116
▁secure	-9.64119
▁complete	-9.64209
▁taken	-9.64435
▁snake	-9.64442
▁themselves	-9.64442
▁width	-9.64442
▁myself	-9.64442
▁super	-9.64444
▁must	-9.64454
▁nicely	-9.64464
▁seal	-9.64511
▁j	-9.64652
▁electric	-9.64701
▁shadow	-9.64895
▁certainly	-9.64918
▁hour	-9.64932
▁thank	-9.64964
▁tap	-9.65211
ok	-9.6561
ch	-9.65787
▁bright	-9.65919
▁suggest	-9.65938
▁strength	-9.65941
▁built	-9.65957
▁shrimp	-9.65957
▁master	-9.65977
ment	-9.66024
▁plus	-9.66034
▁feeling	-9.66317
▁date	-9.66337
▁aware	-9.66388
▁sheet	-9.66504
▁per	-9.66749
▁strike	-9.67059
▁fly	-9.67181
▁connect	-9.67216
▁gloss	-9.67496
▁thousand	-9.67496
▁soda	-9.67504
▁shift	-9.67505
▁absolute	-9.67517
ting	-9.6753
▁straighten	-9.67613
▁counter	-9.67618
▁relaxed	-9.67913
v	-9.67974
▁movements	-9.68431
▁los	-9.68445
▁learned	-9.68624
▁explain	-9.68769
▁classic	-9.69012
▁anti	-9.69012
▁expert	-9.69057
▁perhaps	-9.69058
▁squat	-9.69058
▁true	-9.69083
▁american	-9.69089
▁lengthen	-9.69094
▁oppos	-9.69098
▁dating	-9.69101
▁original	-9.69118
▁writing	-9.69376
z	-9.69427
▁sweet	-9.69511
▁pages	-9.69555
▁rule	-9.69602
▁pad	-9.69725
▁strip	-9.6982
▁medica	-9.69903
▁plane	-9.70077
▁dress	-9.70087
▁balls	-9.70297
▁picking	-9.70358
▁condition	-9.70507
▁ideas	-9.70574
▁mold	-9.70635
▁answer	-9.70646
▁doctor	-9.70646
▁court	-9.70646
▁jewelry	-9.70646
▁north	-9.7067
▁bond	-9.70674
▁joe	-9.70703
▁bubbles	-9.70735
ought	-9.70756
▁wipe	-9.70769
▁watching	-9.70806
▁cleaner	-9.71401
ted	-9.71463
▁vegetables	-9.71823
ld	-9.71894
▁aid	-9.72163
▁bacon	-9.72258
▁yet	-9.72259
▁zoom	-9.72291
▁tighten	-9.72315
ier	-9.72334
▁beak	-9.7246
▁dealer	-9.72514
▁wheels	-9.72635
▁owner	-9.72651
le	-9.72704
▁reduce	-9.72842
▁ninet	-9.73067
▁direct	-9.73094
▁questions	-9.73456
▁shower	-9.73786
▁guess	-9.73898
▁trap	-9.73904
▁perform	-9.73914
▁essentially	-9.74007
▁shut	-9.74027
ar	-9.74171
▁note	-9.74281
▁naturally	-9.74543
▁lifting	-9.74583
▁rain	-9.74612
▁combination	-9.74646
▁fan	-9.74671
▁closed	-9.74749
▁lighting	-9.74871
▁wait	-9.74943
▁require	-9.75398
▁pet	-9.75536
▁period	-9.75564
▁popular	-9.75566
▁canoe	-9.75571
▁tall	-9.75677
▁quarter	-9.75717
▁bed	-9.75976
▁meaning	-9.76208
▁command	-9.76363
▁foods	-9.76422
▁created	-9.76482
▁pat	-9.76575
▁ears	-9.77269
▁defender	-9.77306
▁stock	-9.77384
▁corners	-9.77385
▁pitch	-9.77443
▁chop	-9.77634
▁early	-9.77698
▁saying	-9.77828
tic	-9.77898
▁liner	-9.78038
▁muscle	-9.78177
▁suit	-9.78242
directly	-9.7837
ant	-9.78673
▁repair	-9.78685
▁sha	-9.78764
▁shell	-9.78843
▁possibl	-9.7885
▁flush	-9.78983
▁below	-9.78984
▁fruit	-9.78984
▁portal	-9.78994
▁present	-9.79017
▁meat	-9.79041
▁past	-9.79128
▁turns	-9.79151
▁dr	-9.79174
▁beat	-9.79301
▁curly	-9.79476
▁mixed	-9.79776
inner	-9.79834
se	-9.79863
▁known	-9.79882
▁container	-9.79916
▁da	-9.79942
▁glove	-9.79944
▁lightly	-9.80182
▁affect	-9.80552
▁health	-9.80558
▁effective	-9.80562
▁austin	-9.80738
▁internet	-9.80738
▁supply	-9.80738
▁sink	-9.80738
▁prefer	-9.80738
▁search	-9.80738
▁lamp	-9.80738
▁h	-9.80739
▁scale	-9.80741
▁wand	-9.80741
▁specifically	-9.80745
▁chin	-9.80748
▁plug	-9.80755
▁oven	-9.80802
▁clothes	-9.80809
▁beef	-9.80936
▁kinda	-9.81541
▁tripod	-9.81711
▁nine	-9.81718
▁guard	-9.8172
▁heels	-9.81883
te	-9.82086
▁finding	-9.82189
▁listen	-9.82453
▁office	-9.82483
▁easies	-9.82524
▁laptop	-9.82524
▁sense	-9.82524
▁pliers	-9.82524
▁metal	-9.82542
▁outfit	-9.82604
▁hope	-9.82728
▁late	-9.8276
▁paddle	-9.82897
▁incorporate	-9.83101
▁purchase	-9.83133
▁pressing	-9.83143
▁mess	-9.83484
▁par	-9.83485
▁shoe	-9.83636
▁tree	-9.83662
▁goal	-9.83738
▁improv	-9.84284
▁target	-9.84342
▁napkin	-9.84342
▁crease	-9.84344
▁forget	-9.84347
▁coach	-9.84356
▁spots	-9.84402
▁tiny	-9.84449
ary	-9.84698
cause	-9.84993
▁30	-9.8537
▁action	-9.85484
▁ingredients	-9.85813
▁beads	-9.8591
▁curve	-9.86125
▁mixing	-9.86188
▁access	-9.86191
▁queen	-9.86194
▁kitchen	-9.86194
▁wedding	-9.86194
▁crab	-9.86195
▁daily	-9.86198
▁grass	-9.86222
▁coverage	-9.86231
▁protection	-9.86237
▁workout	-9.86281
▁speaking	-9.86686
▁individual	-9.87195
ese	-9.87354
▁price	-9.87373
▁repeat	-9.8738
▁ankle	-9.87403
▁animal	-9.87415
tally	-9.87501
▁co	-9.8763
▁sections	-9.8774
▁attach	-9.87749
▁picked	-9.87771
▁telling	-9.87976
▁corn	-9.87994
▁absorb	-9.88081
▁silver	-9.88081
▁speech	-9.88081
▁zone	-9.88081
▁neat	-9.88082
▁swimming	-9.88082
▁percent	-9.88084
▁trade	-9.88092
▁dice	-9.88097
▁nurse	-9.88099
▁dial	-9.8811
▁printing	-9.88295
▁interested	-9.88295
▁bacteria	-9.88298
id	-9.88488
▁tongue	-9.8849
▁perfectly	-9.88495
▁soil	-9.89362
▁tri	-9.89366
em	-9.89416
▁touching	-9.89549
▁page	-9.89603
▁letter	-9.89603
▁games	-9.89734
out	-9.89822
▁br	-9.89824
b	-9.89965
▁moment	-9.90003
▁previous	-9.90004
▁application	-9.90004
▁driving	-9.90004
▁acne	-9.90005
▁100	-9.90012
▁logo	-9.90035
▁shake	-9.90047
▁pink	-9.90156
▁choos	-9.90312
▁techniques	-9.90574
▁u	-9.90584
▁covered	-9.91146
▁sew	-9.91175
▁hinge	-9.91351
▁object	-9.91364
▁ounce	-9.91377
▁program	-9.91379
▁log	-9.91499
ging	-9.91637
line	-9.91676
ver	-9.91786
▁engine	-9.91815
▁rough	-9.91934
▁caffeine	-9.91964
▁clamp	-9.91964
▁japan	-9.91964
▁telescope	-9.91964
▁interview	-9.91965
▁english	-9.91966
▁excess	-9.91967
▁please	-9.91977
▁bones	-9.92268
▁heard	-9.92368
▁ride	-9.92591
▁net	-9.92611
▁environment	-9.93003
ten	-9.9303
▁extension	-9.93404
▁hav	-9.9379
▁sizes	-9.93804
▁crown	-9.93964
▁excellent	-9.93964
▁leaf	-9.93964
▁pool	-9.93964
▁road	-9.93964
▁twelve	-9.93964
▁lipstick	-9.93969
▁al	-9.94023
time	-9.94325
▁cooked	-9.94411
▁spare	-9.94531
ul	-9.94913
it	-9.95094
▁breathing	-9.95275
▁months	-9.95375
▁boil	-9.95389
▁solution	-9.95487
▁issue	-9.95528
▁topic	-9.95732
▁added	-9.95793
▁sky	-9.95829
▁prepare	-9.95949
▁equal	-9.96005
▁john	-9.96005
▁cheap	-9.96006
▁location	-9.96006
▁morning	-9.96006
▁fence	-9.96008
▁path	-9.96026
▁river	-9.96027
▁options	-9.96032
▁covering	-9.96569
▁moves	-9.9701
▁blocks	-9.97102
▁items	-9.97506
▁infection	-9.97561
▁stress	-9.978
▁colored	-9.97997
▁photo	-9.98088
▁cotton	-9.98088
▁dancing	-9.98088
▁pivot	-9.98088
▁rhythm	-9.98088
▁schedule	-9.98088
▁screen	-9.98088
▁soccer	-9.98088
▁lava	-9.9809
▁trouble	-9.98096
▁immediately	-9.981
▁lime	-9.98104
▁class	-9.98109
▁advanced	-9.98168
▁fiber	-9.98184
▁aside	-9.98219
▁circles	-9.98277
▁expensive	-9.98369
▁mid	-9.98422
▁para	-9.98427
▁stays	-9.98455
▁seeing	-9.98715
▁abs	-9.9901
▁sea	-9.99188
▁benefits	-9.99334
▁tricks	-9.99468
though	-9.99606
▁cell	-9.99802
▁keeps	-9.99946
▁cute	-10.0004
▁scrub	-10.0021
▁sauce	-10.0021
▁eleven	-10.0022
▁pineapple	-10.0022
▁hammer	-10.0022
▁studio	-10.0022
▁york	-10.0022
▁row	-10.0022
▁brand	-10.0022
▁heavier	-10.0023
▁familiar	-10.0026
▁vest	-10.0027
▁produce	-10.0082
▁online	-10.0107
▁traveling	-10.0128
▁numbers	-10.0132
▁shapes	-10.0162
▁list	-10.0175
▁shooting	-10.0175
▁rotate	-10.0175
to	-10.018
▁term	-10.0186
▁strokes	-10.0187
▁mechanic	-10.0198
▁yard	-10.0201
▁ha	-10.0206
▁seems	-10.0206
▁results	-10.0212
▁report	-10.0223
▁sticks	-10.0235
▁mode	-10.0235
▁audience	-10.0239
▁beauty	-10.0239
▁budget	-10.0239
▁racket	-10.0239
▁knob	-10.0239
▁jacket	-10.0239
▁hardware	-10.024
▁braid	-10.024
▁ceiling	-10.0244
▁liz	-10.0245
▁split	-10.0252
▁charm	-10.0256
▁involved	-10.0259
fore	-10.0268
▁basis	-10.0282
▁issues	-10.0292
▁mud	-10.0321
▁fully	-10.0337
▁circula	-10.0349
▁ste	-10.0352
▁dogs	-10.0372
▁st	-10.0387
▁weights	-10.0389
▁feed	-10.0411
▁oily	-10.042
▁bracelet	-10.0427
▁centered	-10.0427
▁cost	-10.0434
▁raise	-10.0452
▁tab	-10.0461
▁contrast	-10.0461
▁gentle	-10.0461
▁spoon	-10.0461
▁stomach	-10.0461
▁birthday	-10.0461
▁micro	-10.0461
▁foil	-10.0461
▁fifteen	-10.0461
▁paul	-10.0461
▁send	-10.0463
▁current	-10.0463
▁tense	-10.0466
▁structure	-10.0469
▁primar	-10.0477
ate	-10.0482
ance	-10.049
▁correctly	-10.0491
▁shorter	-10.0493
▁diet	-10.0494
▁shots	-10.0494
▁dropping	-10.0501
ful	-10.0501
▁pants	-10.0508
▁spades	-10.0529
▁tear	-10.0534
▁occur	-10.0587
▁reasons	-10.0591
▁install	-10.0596
▁clothing	-10.0599
▁lights	-10.0607
▁reading	-10.0631
▁elbows	-10.0643
▁mistake	-10.0661
▁choice	-10.0662
▁chang	-10.0665
▁eggs	-10.0672
▁nails	-10.0672
ock	-10.068
▁afraid	-10.0688
▁mixture	-10.0688
▁represent	-10.0688
▁sponge	-10.0688
▁therapy	-10.0688
▁permanent	-10.0689
▁sliding	-10.0689
▁zip	-10.0689
▁dangerous	-10.0689
▁country	-10.069
▁eventually	-10.069
up	-10.0691
▁plen	-10.0692
▁bigge	-10.0692
▁fifty	-10.0697
▁background	-10.0699
▁thicker	-10.0705
▁pins	-10.0706
tract	-10.071
▁attached	-10.0723
▁patch	-10.0724
▁older	-10.0731
▁replace	-10.0796
ive	-10.0829
een	-10.0838
▁speak	-10.0846
▁beans	-10.0849
▁handed	-10.0865
▁kill	-10.0891
▁trip	-10.0894
▁birds	-10.0896
▁nut	-10.0911
▁blades	-10.0912
▁contract	-10.0919
▁street	-10.0921
▁teapot	-10.0921
▁texas	-10.0921
▁research	-10.0921
▁volleyball	-10.0921
▁tiger	-10.0921
▁stuck	-10.0921
▁pump	-10.0923
▁woman	-10.0923
▁strengthen	-10.0924
▁golden	-10.0924
▁supposed	-10.0924
▁reverse	-10.0925
▁tune	-10.0927
▁mother	-10.0928
▁wider	-10.0934
▁demo	-10.0945
▁hug	-10.0947
▁soap	-10.0964
▁supplies	-10.0967
▁ski	-10.0974
▁shine	-10.1002
▁students	-10.1036
▁boots	-10.1104
▁needed	-10.1114
▁falling	-10.1116
▁given	-10.1132
▁engage	-10.1146
ally	-10.1146
▁bubble	-10.1146
▁9	-10.1147
▁jumping	-10.1151
▁breed	-10.1159
▁achieve	-10.1159
▁compliment	-10.1159
▁espresso	-10.1159
▁exist	-10.1159
▁expect	-10.1159
▁grocer	-10.1159
▁necessary	-10.1159
▁bathroom	-10.1159
▁sick	-10.1159
▁accent	-10.1159
▁shelf	-10.116
▁garage	-10.116
▁gap	-10.1161
▁windows	-10.1165
▁waste	-10.1169
▁tires	-10.1178
▁con	-10.1182
▁tough	-10.1183
▁fits	-10.1188
▁aspect	-10.1198
▁40	-10.1255
▁patterns	-10.1263
▁gloves	-10.1268
▁50	-10.1291
▁images	-10.1316
▁teaching	-10.1354
▁essential	-10.1387
▁sticking	-10.1388
verage	-10.1399
▁tomato	-10.1399
▁drag	-10.14
▁flex	-10.1401
▁decorat	-10.1401
▁potato	-10.1401
▁mount	-10.1403
▁salmon	-10.1403
▁triangle	-10.1403
▁thermostat	-10.1403
▁torso	-10.1403
▁gym	-10.1403
▁grain	-10.1404
▁spinning	-10.1405
▁cage	-10.1406
ily	-10.1409
▁wild	-10.141
▁improve	-10.141
▁soak	-10.1422
▁finer	-10.1432
▁darker	-10.1432
▁dirty	-10.1441
▁town	-10.1476
set	-10.1497
▁sounds	-10.1506
▁sports	-10.153
ne	-10.1547
▁interest	-10.1564
▁glaze	-10.1566
▁r	-10.1571
▁brew	-10.1587
▁washing	-10.161
▁bags	-10.1624
▁slight	-10.1643
▁rip	-10.1652
▁subject	-10.1653
▁anymore	-10.1653
▁certified	-10.1653
▁everywhere	-10.1653
▁frisbee	-10.1653
▁monologue	-10.1653
▁public	-10.1653
▁shuffle	-10.1653
▁chalk	-10.1653
▁welcome	-10.1653
▁urine	-10.1653
▁champ	-10.1653
▁anyone	-10.1653
▁voice	-10.1653
▁wool	-10.1654
▁plain	-10.1654
▁thirteen	-10.1654
▁45	-10.1654
▁cardboard	-10.1654
▁gain	-10.1654
▁judge	-10.1656
▁gossip	-10.1657
▁study	-10.1659
▁damp	-10.1664
▁horses	-10.1665
▁deeper	-10.1677
▁beach	-10.1678
▁pipe	-10.1695
▁seam	-10.1702
▁extended	-10.1708
▁mo	-10.1719
▁rounded	-10.174
▁clap	-10.1749
▁cu	-10.179
▁paste	-10.1806
▁pads	-10.1808
▁cats	-10.1859
▁increase	-10.1881
▁melt	-10.1881
op	-10.1893
▁friend	-10.1899
▁bow	-10.1903
▁lin	-10.1904
▁device	-10.1909
▁aggressive	-10.1909
▁aperture	-10.1909
▁approach	-10.1909
▁forearm	-10.1909
▁polish	-10.1909
▁sensitive	-10.1909
▁narrow	-10.1909
▁requirements	-10.1909
▁living	-10.191
▁advice	-10.191
▁funny	-10.191
▁everyday	-10.191
▁breast	-10.1912
▁chemical	-10.1912
▁artist	-10.1919
▁controll	-10.1924
▁raised	-10.1937
▁realize	-10.1939
ta	-10.1955
▁completed	-10.1958
▁catching	-10.1967
▁installing	-10.198
▁su	-10.199
▁dryer	-10.2013
▁imagine	-10.2022
▁toss	-10.2023
ho	-10.2044
▁drip	-10.2062
▁allowed	-10.2076
▁passing	-10.2081
ha	-10.2093
what	-10.2112
agne	-10.2148
▁hill	-10.2152
▁wonder	-10.2172
▁insulation	-10.2173
▁leash	-10.2173
▁license	-10.2173
▁transition	-10.2173
▁pimples	-10.2173
▁visual	-10.2173
▁creature	-10.2173
▁pillow	-10.2173
▁rectangle	-10.2173
▁sudden	-10.2173
▁wrench	-10.2173
▁shark	-10.2173
▁harness	-10.2173
▁basketball	-10.2173
▁captain	-10.2173
▁concealer	-10.2174
at	-10.2175
▁opportunity	-10.2175
▁visit	-10.2177
▁90	-10.2177
▁advantage	-10.2177
▁motorcycle	-10.2178
▁charge	-10.2182
▁relationship	-10.2182
▁stepping	-10.2188
▁fal	-10.2189
▁mail	-10.2192
▁sale	-10.2192
▁clips	-10.2217
▁adult	-10.2233
▁twisting	-10.2248
ent	-10.2264
▁young	-10.228
▁x	-10.2284
▁materials	-10.2291
▁gi	-10.2327
▁pictures	-10.2337
▁pi	-10.2338
per	-10.2351
▁join	-10.239
▁girls	-10.2393
▁variations	-10.2395
▁plac	-10.2398
do	-10.2415
▁horizontal	-10.2426
▁compani	-10.2443
▁defensive	-10.2443
▁identify	-10.2443
▁olive	-10.2443
▁phase	-10.2443
▁therapist	-10.2443
▁magic	-10.2443
▁ensure	-10.2443
▁barrel	-10.2443
▁alternative	-10.2443
▁rim	-10.2443
▁gina	-10.2443
▁display	-10.2444
▁bread	-10.2445
▁pinch	-10.2446
▁growth	-10.2446
▁thickness	-10.2446
▁traditional	-10.245
▁realtor	-10.2451
▁mine	-10.2452
▁bill	-10.2455
▁measurement	-10.246
▁egg	-10.2463
▁leader	-10.2473
▁marker	-10.2482
▁quicker	-10.2493
▁designer	-10.2521
▁snap	-10.2548
▁conditioning	-10.2549
▁changed	-10.2579
▁flavors	-10.2611
▁features	-10.2635
▁pai	-10.2639
▁rate	-10.2651
▁grows	-10.2657
▁crack	-10.2668
▁pain	-10.2675
▁drops	-10.2676
▁web	-10.2699
▁receive	-10.2706
▁successful	-10.2706
▁aroma	-10.272
▁caught	-10.2721
▁challenge	-10.2721
▁diamond	-10.2721
▁experiment	-10.2721
▁google	-10.2721
▁lazy	-10.2721
▁maintenance	-10.2721
▁offense	-10.2721
▁pepper	-10.2721
▁diagonal	-10.2721
▁utiliz	-10.2721
▁fist	-10.2721
▁angry	-10.2721
▁desire	-10.2721
▁twice	-10.2721
▁literally	-10.2721
▁deliver	-10.2721
▁fear	-10.2721
▁education	-10.2721
▁pong	-10.2721
▁flame	-10.2721
▁ridge	-10.2722
▁momentum	-10.2722
▁pores	-10.2722
▁wagon	-10.2723
▁include	-10.2726
▁brakes	-10.2728
▁helpful	-10.2729
▁involve	-10.2744
▁indoor	-10.2744
▁sleeve	-10.2747
▁cue	-10.2765
▁bulbs	-10.2771
▁fitting	-10.2782
▁comic	-10.2865
▁rescue	-10.2885
▁continu	-10.2906
▁directions	-10.2921
▁measur	-10.2952
▁bottles	-10.2954
▁bolts	-10.2956
▁marks	-10.2959
▁kayak	-10.2974
aid	-10.2979
▁physical	-10.2989
▁non	-10.3
▁finishing	-10.3
▁collect	-10.3002
▁dentist	-10.3005
▁swim	-10.3006
▁rib	-10.3006
▁decision	-10.3006
▁definition	-10.3006
▁leaving	-10.3006
▁teaspoon	-10.3006
▁television	-10.3006
▁potential	-10.3006
▁africa	-10.3006
▁russell	-10.3008
▁rust	-10.3009
▁multiple	-10.3009
▁connection	-10.301
▁aim	-10.301
sylv	-10.3011
▁rear	-10.3011
▁address	-10.3012
▁code	-10.3012
▁overall	-10.3012
▁enter	-10.302
▁tube	-10.3032
▁useful	-10.3039
▁cheer	-10.3041
▁result	-10.3043
▁rare	-10.3047
▁loosen	-10.3047
▁stem	-10.3066
▁carefully	-10.3081
▁fishing	-10.3101
▁bu	-10.3113
▁flying	-10.3123
▁rocks	-10.3133
▁dis	-10.3207
▁sub	-10.3234
▁season	-10.3237
land	-10.3278
▁accurate	-10.3286
▁pie	-10.3298
▁except	-10.3299
▁south	-10.33
▁flexibility	-10.3301
▁practicing	-10.3301
▁scream	-10.3301
▁videographer	-10.3301
▁stroller	-10.3301
▁balloon	-10.3301
▁forehand	-10.3301
▁tilt	-10.3301
▁spill	-10.3301
▁rise	-10.3301
▁bobby	-10.3302
▁groove	-10.3303
▁mug	-10.3306
▁crank	-10.3307
▁reel	-10.3313
▁henna	-10.3313
▁calm	-10.3315
▁driver	-10.3318
▁gotten	-10.332
▁canvas	-10.3325
▁pocket	-10.3338
▁candle	-10.3342
▁flag	-10.3342
▁personally	-10.3342
▁bear	-10.3342
▁ga	-10.3343
▁loops	-10.3345
▁cases	-10.3347
▁bead	-10.3347
▁others	-10.3347
▁locked	-10.3371
ine	-10.3373
▁covers	-10.3381
▁ounces	-10.339
▁miss	-10.3425
ped	-10.344
▁flowing	-10.3441
▁fitt	-10.3444
ng	-10.3457
▁writ	-10.3493
▁ba	-10.3497
▁growing	-10.3503
▁addition	-10.3506
▁clubs	-10.3534
▁notes	-10.3549
▁names	-10.3594
▁lens	-10.3599
▁acrylic	-10.3604
▁alcohol	-10.3604
▁applied	-10.3604
▁opinion	-10.3604
▁relative	-10.3604
▁faith	-10.3604
▁robert	-10.3604
▁chamber	-10.3604
▁ladies	-10.3604
▁honey	-10.3604
▁hydrating	-10.3604
▁index	-10.3604
▁craft	-10.3604
▁french	-10.3604
▁bait	-10.3604
▁drum	-10.3605
▁constantly	-10.3606
▁china	-10.3609
▁boy	-10.3612
▁clients	-10.3613
▁overhead	-10.3613
▁copy	-10.3614
▁boxes	-10.3627
▁vers	-10.3644
rs	-10.3647
▁cl	-10.3653
▁stamp	-10.3655
▁bolt	-10.3657
▁highlight	-10.366
▁variation	-10.3662
▁weak	-10.3666
ated	-10.3669
ize	-10.3673
▁teacher	-10.3674
▁tin	-10.3713
▁miles	-10.3738
▁removed	-10.3739
▁straps	-10.3747
▁stir	-10.3778
▁sticky	-10.3783
be	-10.3838
▁joints	-10.3845
▁steep	-10.3854
water	-10.3854
▁causes	-10.3856
▁shown	-10.3858
ton	-10.3866
▁prepar	-10.3872
▁sparkl	-10.3886
▁cuts	-10.3913
▁neutral	-10.3916
▁cheek	-10.3916
▁cockpit	-10.3916
▁college	-10.3916
▁community	-10.3916
▁depth	-10.3916
▁prior	-10.3916
▁scoop	-10.3916
▁steady	-10.3916
▁swirl	-10.3916
▁nature	-10.3916
▁communication	-10.3916
▁chew	-10.3916
▁stability	-10.3917
▁wig	-10.3917
▁triple	-10.3917
▁rose	-10.3917
▁tug	-10.3918
▁dinner	-10.3919
▁scent	-10.392
▁crazy	-10.392
▁alone	-10.3923
▁view	-10.3931
▁dig	-10.3932
▁choices	-10.3953
▁lifted	-10.3953
▁fighting	-10.3957
▁restaurant	-10.3975
▁shade	-10.3978
▁pound	-10.3979
▁ingredient	-10.3981
▁animals	-10.4028
▁falls	-10.4046
nt	-10.4064
▁spa	-10.4074
bing	-10.4087
▁meal	-10.41
come	-10.4102
▁spic	-10.415
▁changes	-10.4171
▁highlights	-10.4182
▁180	-10.4239
▁barrier	-10.4239
▁confident	-10.4239
▁delete	-10.4239
▁diabetes	-10.4239
▁flick	-10.4239
▁leopard	-10.4239
▁oxygen	-10.4239
▁peanut	-10.4239
▁ribbon	-10.4239
▁scalp	-10.4239
▁synthetic	-10.4239
▁taught	-10.4239
▁turtle	-10.4239
▁stiff	-10.4239
bson	-10.4239
▁butterfly	-10.4239
▁drug	-10.4239
▁bench	-10.4239
▁insert	-10.4239
▁warranty	-10.424
▁kitty	-10.424
▁wrapped	-10.424
▁grease	-10.4241
nna	-10.4241
▁manufacturer	-10.4242
▁consistency	-10.4242
▁fur	-10.4242
▁valve	-10.4243
▁encourage	-10.4243
▁chains	-10.4246
▁combine	-10.4246
▁behavior	-10.4246
▁soften	-10.4248
▁amazing	-10.4254
state	-10.4255
dental	-10.4258
▁wor	-10.4261
ify	-10.4298
▁mountain	-10.4307
▁arch	-10.4309
▁boot	-10.4312
▁taper	-10.432
▁programs	-10.4337
▁theme	-10.4343
ability	-10.4349
king	-10.4379
▁joint	-10.4381
▁arts	-10.4395
▁import	-10.4424
▁conditions	-10.4437
▁coated	-10.4441
ning	-10.4463
▁systems	-10.4465
▁touche	-10.4467
▁stands	-10.4475
▁weeds	-10.448
▁happening	-10.4483
▁pounds	-10.4505
coming	-10.4511
ept	-10.4517
▁ca	-10.4524
ey	-10.4527
▁painted	-10.4529
la	-10.4549
▁tub	-10.4551
▁manual	-10.4556
▁multi	-10.4571
▁approximate	-10.4572
▁biodiesel	-10.4572
▁clown	-10.4572
▁flounder	-10.4572
▁resume	-10.4572
▁session	-10.4572
▁squash	-10.4572
▁technical	-10.4572
▁whip	-10.4572
▁yoyo	-10.4572
▁muller	-10.4572
▁stove	-10.4572
▁ollie	-10.4572
▁brayer	-10.4572
▁delicious	-10.4572
▁dough	-10.4572
▁label	-10.4572
▁hookah	-10.4573
▁pace	-10.4573
▁kiln	-10.4573
▁laura	-10.4573
▁nick	-10.4575
▁media	-10.4577
▁tomatoes	-10.4578
▁property	-10.4583
▁bath	-10.4587
▁punches	-10.459
▁lesson	-10.4591
▁fourth	-10.4593
cro	-10.4602
▁file	-10.4602
▁boomer	-10.461
cent	-10.4623
▁mom	-10.4632
arine	-10.4636
▁assistan	-10.4636
lon	-10.4648
▁female	-10.4652
▁jean	-10.4662
▁offer	-10.4744
ir	-10.4763
▁highly	-10.4791
li	-10.481
▁remov	-10.4842
▁sets	-10.4843
fortunate	-10.4854
▁serious	-10.49
▁bump	-10.4909
▁peac	-10.4911
▁freeze	-10.4914
▁bracket	-10.4917
▁future	-10.4917
▁impromptu	-10.4917
▁instrument	-10.4917
▁knock	-10.4917
▁sample	-10.4917
▁saturate	-10.4917
▁wound	-10.4917
▁zero	-10.4917
▁dvd	-10.4917
▁memory	-10.4917
▁lasso	-10.4917
▁shaft	-10.4917
▁broken	-10.4918
▁organic	-10.4918
▁guideline	-10.4918
▁mood	-10.4918
▁dehydrated	-10.4919
▁trust	-10.492
▁moon	-10.4921
▁peach	-10.4923
▁0	-10.4924
▁filling	-10.4925
▁plum	-10.4925
▁calf	-10.4931
▁dri	-10.4935
▁matches	-10.4939
▁fingertips	-10.494
▁carpet	-10.4945
artial	-10.4948
▁groups	-10.4953
▁runs	-10.4954
▁washer	-10.4961
man	-10.4964
▁yards	-10.4976
▁cells	-10.4986
▁commonly	-10.4994
▁components	-10.4996
▁el	-10.5001
▁function	-10.5003
▁clearly	-10.502
▁gel	-10.5022
▁boiling	-10.5023
▁ability	-10.5048
▁cutters	-10.5052
▁soup	-10.5063
icle	-10.507
cy	-10.5072
▁beside	-10.5075
▁bare	-10.5091
▁thighs	-10.5117
▁se	-10.5124
▁loss	-10.5135
ge	-10.5166
▁fel	-10.5173
▁compare	-10.5186
▁scratch	-10.5206
▁styles	-10.5207
▁ver	-10.5222
▁th	-10.5235
▁complet	-10.5245
▁obvious	-10.5258
over	-10.527
▁minu	-10.5274
▁anybody	-10.5274
▁complicated	-10.5274
▁dialogue	-10.5274
▁essay	-10.5274
▁gecko	-10.5274
▁knowledge	-10.5274
▁millimeter	-10.5274
▁reptile	-10.5274
▁squeezing	-10.5274
▁tread	-10.5274
▁volcano	-10.5274
▁volume	-10.5274
▁minor	-10.5274
▁eliminat	-10.5274
▁enemy	-10.5274
▁summer	-10.5274
▁lump	-10.5274
▁preference	-10.5274
▁bedroom	-10.5274
▁flute	-10.5274
▁rack	-10.5274
▁resin	-10.5274
▁roping	-10.5274
▁garment	-10.5274
▁stake	-10.5275
▁trimming	-10.5275
▁bridge	-10.5275
▁jar	-10.5276
▁carrier	-10.5276
▁gather	-10.5276
▁geograph	-10.5277
▁national	-10.5278
▁dew	-10.5279
▁stable	-10.528
▁setup	-10.5283
▁gun	-10.5287
▁binding	-10.5291
▁prepared	-10.5336
▁earth	-10.5338
▁connected	-10.5341
▁tricky	-10.5344
ung	-10.5347
▁weeks	-10.5353
ious	-10.5353
▁die	-10.5354
▁month	-10.5369
▁site	-10.5369
▁hem	-10.5371
▁coloring	-10.5377
▁source	-10.5381
▁eyebrow	-10.5383
▁feature	-10.5386
▁eighty	-10.5388
▁sewing	-10.5389
▁protected	-10.5395
▁noticed	-10.541
▁recommended	-10.5421
▁item	-10.5428
▁exercises	-10.5441
▁ropes	-10.5444
▁cars	-10.5461
▁vitamins	-10.5462
▁roller	-10.547
▁chip	-10.5497
▁clocks	-10.5539
dy	-10.5543
▁war	-10.5548
▁effects	-10.5549
▁park	-10.5566
▁boas	-10.5579
▁crochet	-10.558
▁sweat	-10.5621
▁california	-10.5644
▁perception	-10.5644
▁pulse	-10.5644
▁razor	-10.5644
▁shredde	-10.5644
▁lake	-10.5644
▁roast	-10.5644
▁subtle	-10.5644
▁apple	-10.5644
▁diameter	-10.5644
▁slack	-10.5644
▁construction	-10.5645
▁extinguisher	-10.5645
▁resistance	-10.5645
▁email	-10.5645
▁association	-10.5645
▁planning	-10.5645
▁batteries	-10.5645
▁vine	-10.5646
▁version	-10.5647
▁deco	-10.5647
▁homework	-10.5647
▁max	-10.5649
▁000	-10.565
▁history	-10.5651
▁till	-10.5661
▁lever	-10.5662
ac	-10.5662
▁concerned	-10.5664
▁speaker	-10.5667
▁drying	-10.5669
▁easter	-10.567
▁nuts	-10.5677
▁independent	-10.5677
▁oils	-10.5679
▁stretches	-10.5683
▁prep	-10.5697
▁bean	-10.5698
▁casting	-10.571
▁shed	-10.5735
▁objects	-10.5759
▁boards	-10.5773
▁kit	-10.5776
▁ob	-10.5783
▁kid	-10.5784
▁seed	-10.5785
ities	-10.5792
▁skill	-10.5811
▁choke	-10.5815
▁prop	-10.5853
▁boats	-10.5858
▁strips	-10.5876
▁proportion	-10.5892
co	-10.5904
▁resist	-10.5913
un	-10.5928
▁mich	-10.5939
work	-10.5959
▁rum	-10.5961
▁screws	-10.5992
▁following	-10.6007
▁lo	-10.6008
▁adults	-10.6009
▁batter	-10.6017
▁law	-10.602
▁campfire	-10.6029
▁conversation	-10.6029
▁jeff	-10.6029
▁password	-10.6029
▁pendulum	-10.6029
▁perfume	-10.6029
▁puppy	-10.6029
▁remain	-10.6029
▁scoring	-10.6029
▁sunscreen	-10.6029
▁modern	-10.6029
▁dedicate	-10.6029
▁sake	-10.6029
▁anchor	-10.6029
▁brief	-10.6029
▁hollywood	-10.6029
▁drew	-10.6029
▁sculpture	-10.6029
▁due	-10.6029
▁quarterback	-10.6029
▁torch	-10.6029
▁radio	-10.6029
▁respect	-10.603
▁carbon	-10.603
▁flight	-10.603
▁rotation	-10.6031
▁apartment	-10.6031
▁noise	-10.6032
▁compass	-10.6033
▁lust	-10.6034
▁dropp	-10.6035
▁lunge	-10.6042
▁details	-10.6045
▁tailor	-10.6045
▁legal	-10.6048
▁tan	-10.6048
▁born	-10.6051
▁none	-10.6057
▁grinder	-10.6067
▁cone	-10.6069
▁stronger	-10.6071
▁slower	-10.6074
▁mistakes	-10.6076
▁wedge	-10.608
ham	-10.6081
gen	-10.6091
▁sits	-10.6094
▁maker	-10.6095
▁reps	-10.6121
▁pee	-10.6124
▁tre	-10.6131
▁po	-10.6136
▁evening	-10.6157
▁ideal	-10.6164
▁abdominal	-10.6167
▁scissor	-10.6174
▁san	-10.618
▁folded	-10.6193
ure	-10.6213
ma	-10.6215
▁package	-10.623
▁poles	-10.6243
▁landing	-10.6267
▁maxim	-10.6278
▁ju	-10.6292
▁paddl	-10.6304
weight	-10.6365
ship	-10.6365
▁arc	-10.6383
▁25	-10.6398
wart	-10.6403
ile	-10.6411
▁gas	-10.6418
▁pile	-10.6421
▁dimension	-10.6422
▁quart	-10.6427
▁accessories	-10.6429
▁asparagus	-10.6429
▁bicycle	-10.6429
▁bullet	-10.6429
▁calendar	-10.6429
▁category	-10.6429
▁competition	-10.6429
▁cowboy	-10.6429
▁error	-10.6429
▁etiquette	-10.6429
▁grout	-10.6429
▁positive	-10.6429
▁render	-10.6429
▁utah	-10.6429
▁rich	-10.6429
▁spider	-10.6429
▁staff	-10.6429
▁classroom	-10.6429
▁creative	-10.6429
▁decorative	-10.643
▁demonstration	-10.643
▁decoration	-10.6432
▁wake	-10.6433
▁shopping	-10.6433
▁human	-10.6433
▁fancy	-10.6434
▁torque	-10.6435
▁buckle	-10.6435
▁vision	-10.6438
▁lying	-10.6455
▁scar	-10.6462
▁reward	-10.6499
▁seem	-10.6502
ative	-10.651
lla	-10.6541
▁lined	-10.6546
de	-10.6551
gage	-10.6551
▁breaks	-10.6556
▁additional	-10.656
he	-10.6567
▁ago	-10.6571
▁detector	-10.6582
▁waiting	-10.6582
▁costume	-10.6584
▁clipper	-10.6585
▁terminal	-10.6585
▁mostly	-10.6588
tting	-10.6592
▁evenly	-10.6599
bris	-10.6601
▁trees	-10.6601
▁jo	-10.6615
ide	-10.6623
▁filled	-10.6623
ja	-10.6667
▁bor	-10.6672
▁cent	-10.6677
▁rings	-10.6678
▁terminals	-10.6685
▁fu	-10.6695
ond	-10.6716
▁gra	-10.6718
▁cha	-10.6753
na	-10.6796
▁chi	-10.6819
▁vertical	-10.6828
▁efficient	-10.6834
▁coarse	-10.684
▁chemicals	-10.6841
▁grade	-10.6843
▁secret	-10.6844
▁conno	-10.6846
▁competitive	-10.6846
▁david	-10.6846
▁feather	-10.6846
▁furniture	-10.6846
▁peroxide	-10.6846
▁regard	-10.6846
▁respond	-10.6846
▁telephone	-10.6846
▁umbrella	-10.6846
▁border	-10.6846
▁ease	-10.6846
▁hobson	-10.6846
▁jaw	-10.6846
▁risk	-10.6846
▁cabinet	-10.6846
▁hose	-10.6846
▁zebra	-10.6846
▁manner	-10.6846
▁vase	-10.6846
▁exposure	-10.6846
▁puff	-10.6846
▁lady	-10.6846
▁concept	-10.6846
▁discover	-10.6846
▁automatically	-10.6846
▁ruin	-10.6846
▁bodies	-10.6846
▁humor	-10.6846
▁cuff	-10.6846
▁species	-10.6846
▁saddle	-10.6847
▁salon	-10.6847
▁fuel	-10.6847
▁marriage	-10.6847
▁message	-10.6848
▁clockwise	-10.6848
▁purple	-10.6848
▁tile	-10.6849
▁reference	-10.6849
▁sundae	-10.685
▁tv	-10.6852
▁potatoes	-10.6853
▁kle	-10.6855
isse	-10.6855
▁strange	-10.6859
▁injury	-10.6866
▁hardness	-10.6867
▁anytime	-10.6873
▁vet	-10.6874
▁limit	-10.6874
▁crawl	-10.6876
▁todd	-10.6888
▁conc	-10.6892
▁installed	-10.6899
▁damaged	-10.6904
▁brushes	-10.6913
elle	-10.6953
▁inter	-10.6953
nce	-10.6956
bal	-10.6958
▁extensions	-10.6965
▁forms	-10.6971
col	-10.6984
▁parents	-10.6994
▁ann	-10.6995
▁ankles	-10.6999
▁male	-10.7017
▁benefit	-10.7022
▁timing	-10.7028
▁sp	-10.7044
▁computers	-10.705
▁19	-10.7058
nger	-10.7075
▁y	-10.7106
▁weather	-10.7113
▁rules	-10.7113
▁introduce	-10.7118
▁strikes	-10.7133
▁begins	-10.7152
▁ne	-10.716
▁temperatures	-10.7168
▁basics	-10.7169
▁notch	-10.7196
▁fla	-10.7197
▁sw	-10.7199
stream	-10.7218
asana	-10.7221
light	-10.724
▁roots	-10.7255
▁reflect	-10.7275
▁snug	-10.728
▁blank	-10.728
▁activities	-10.728
▁bloom	-10.728
▁cabbage	-10.728
▁dribbling	-10.728
▁dynamic	-10.728
▁expand	-10.728
▁hypnosis	-10.728
▁insomnia	-10.728
▁intensity	-10.728
▁nutrients	-10.728
▁perpendicular	-10.728
▁platform	-10.728
▁releasing	-10.728
▁serving	-10.728
▁frizz	-10.728
▁harsh	-10.728
▁immun	-10.728
▁sixteen	-10.728
▁wife	-10.728
▁indicate	-10.7281
▁cork	-10.7281
▁mouse	-10.7281
▁underwear	-10.7281
▁concentrate	-10.7281
▁statement	-10.7282
▁adjustment	-10.7283
▁describe	-10.7286
▁worse	-10.7289
ph	-10.7305
▁afterwards	-10.7305
▁production	-10.7312
▁hood	-10.7324
▁buttons	-10.7325
▁cleaned	-10.7352
au	-10.7357
▁stripes	-10.7358
▁ex	-10.736
▁outline	-10.7362
▁missing	-10.7372
▁exfoliate	-10.7375
▁total	-10.7376
▁rag	-10.7379
▁blended	-10.7414
▁specialize	-10.7418
▁sting	-10.7425
▁happened	-10.7433
▁whiten	-10.7435
lew	-10.7453
▁walls	-10.7475
▁thigh	-10.7475
▁outdoor	-10.7475
▁bite	-10.7511
▁mr	-10.7517
▁wines	-10.7532
▁motions	-10.7554
▁grav	-10.7575
▁exam	-10.7576
▁shin	-10.7582
▁eating	-10.7635
anna	-10.7651
5	-10.7662
▁trie	-10.7669
ring	-10.7671
expensive	-10.7673
soft	-10.7673
▁rent	-10.7677
▁subm	-10.7698
▁lighten	-10.7702
▁east	-10.7703
▁event	-10.7713
▁bending	-10.7716
▁quiet	-10.7718
▁relationships	-10.7718
▁nin	-10.7718
▁defend	-10.7722
▁america	-10.7726
ral	-10.7734
▁anthony	-10.7735
▁bartender	-10.7735
▁ceramic	-10.7735
▁copper	-10.7735
▁crisp	-10.7735
▁cushion	-10.7735
▁destroy	-10.7735
▁eyeliner	-10.7735
▁gipson	-10.7735
▁necklace	-10.7735
▁scene	-10.7735
▁squeegee	-10.7735
▁vintage	-10.7735
▁backswing	-10.7735
▁dull	-10.7735
▁eggplant	-10.7735
▁splash	-10.7735
▁unique	-10.7735
▁enclosure	-10.7735
▁cycle	-10.7735
▁pause	-10.7735
▁fail	-10.7735
▁flexible	-10.7735
▁peg	-10.7735
▁coral	-10.7735
▁mild	-10.7736
▁link	-10.7737
▁campus	-10.7737
▁retain	-10.7737
▁bevel	-10.7738
▁temper	-10.7738
▁lack	-10.7739
▁wrapping	-10.7739
▁purchasing	-10.774
▁confused	-10.7741
▁plank	-10.7743
▁pure	-10.7743
▁seams	-10.7743
▁located	-10.7744
▁vary	-10.7745
▁hide	-10.7745
▁durable	-10.7748
▁shiny	-10.7754
▁symptoms	-10.7778
▁passes	-10.7787
▁slipp	-10.7789
ga	-10.7831
▁balanced	-10.7845
▁compar	-10.7849
▁journals	-10.7853
ck	-10.7854
▁played	-10.7859
ze	-10.7861
▁float	-10.7877
▁marked	-10.7884
▁farm	-10.7888
▁measured	-10.7892
▁focused	-10.7913
▁crystal	-10.7942
▁straw	-10.7943
▁agent	-10.7951
▁panel	-10.7951
▁pole	-10.7953
▁coats	-10.7953
▁goals	-10.7955
▁teams	-10.7965
▁carrying	-10.7969
▁locking	-10.7979
lo	-10.8
pped	-10.8
▁cre	-10.8002
ency	-10.8003
▁masking	-10.8009
▁molds	-10.8021
▁customers	-10.8023
▁faci	-10.803
▁ace	-10.8032
▁events	-10.8054
2	-10.8055
ip	-10.8057
▁eyebrows	-10.8066
▁sn	-10.8074
ex	-10.8074
▁gar	-10.8088
▁gardening	-10.8089
▁sa	-10.809
▁bee	-10.8093
▁downward	-10.8105
▁wings	-10.8118
nd	-10.8123
▁stamps	-10.813
▁drinking	-10.8141
new	-10.8152
▁stars	-10.8161
▁cr	-10.8162
▁tag	-10.8169
▁fight	-10.8178
▁chris	-10.818
▁advance	-10.8197
▁consistent	-10.8199
derly	-10.82
▁contain	-10.8203
▁breasts	-10.8207
▁danger	-10.8211
▁author	-10.8211
▁bunker	-10.8211
▁closing	-10.8211
▁commercial	-10.8211
▁confidence	-10.8211
▁critical	-10.8211
▁drywall	-10.8211
▁frequently	-10.8211
▁impact	-10.8211
▁impossible	-10.8211
▁international	-10.8211
▁jersey	-10.8211
▁leak	-10.8211
▁lettuce	-10.8211
▁medicine	-10.8211
▁motocross	-10.8211
▁residue	-10.8211
▁treadmill	-10.8211
▁jail	-10.8211
▁roof	-10.8211
▁crunch	-10.8211
▁swiss	-10.8211
▁racing	-10.8211
▁pizza	-10.8211
▁pedal	-10.8211
▁settle	-10.8212
▁rubbing	-10.8213
▁impression	-10.8213
▁boss	-10.8216
▁arti	-10.8217
▁freezer	-10.8217
▁digital	-10.8222
▁pig	-10.8223
▁stro	-10.8223
▁seventy	-10.8226
▁lucky	-10.8226
▁compost	-10.8232
▁couch	-10.8237
▁magnet	-10.8242
▁blender	-10.8252
▁mall	-10.8253
ab	-10.8256
▁lie	-10.8258
▁fift	-10.8258
▁sling	-10.8272
▁jobs	-10.8275
hanna	-10.8283
ak	-10.8297
▁doll	-10.8297
▁deeply	-10.8309
▁warming	-10.834
▁kicks	-10.8354
▁mar	-10.8402
▁sport	-10.8453
▁hats	-10.8453
▁vitamin	-10.8456
▁imp	-10.8461
▁pointed	-10.8471
▁les	-10.8475
▁active	-10.8486
▁sl	-10.8493
▁prints	-10.8525
▁sheets	-10.8547
▁holder	-10.8563
bo	-10.8566
▁rolls	-10.86
▁pa	-10.8602
▁treats	-10.8602
▁focusing	-10.8622
▁mass	-10.8624
▁climb	-10.8627
way	-10.8635
▁cakes	-10.864
ky	-10.8642
board	-10.8642
▁mini	-10.8669
▁la	-10.867
▁di	-10.8674
▁stack	-10.8681
ap	-10.8692
▁jan	-10.8702
▁thai	-10.8711
▁birth	-10.8711
▁europe	-10.8711
▁airplane	-10.8711
▁cactus	-10.8711
▁church	-10.8711
▁disappear	-10.8711
▁document	-10.8711
▁dream	-10.8711
▁expense	-10.8711
▁external	-10.8711
▁hydro	-10.8711
▁intake	-10.8711
▁knives	-10.8711
▁nunchuck	-10.8711
▁profile	-10.8711
▁shrug	-10.8711
▁blond	-10.8711
▁grid	-10.8711
▁housing	-10.8711
▁turkey	-10.8711
▁fellow	-10.8711
▁gradual	-10.8711
▁valley	-10.8711
▁fourteen	-10.8711
▁shore	-10.8711
▁introduction	-10.8711
▁zap	-10.8711
▁allergi	-10.8711
▁pork	-10.8711
▁bailey	-10.8711
▁cheat	-10.8711
▁visible	-10.8711
▁electronic	-10.8712
▁skull	-10.8712
▁icon	-10.8712
▁busy	-10.8712
▁zop	-10.8712
▁data	-10.8712
▁hock	-10.8712
smith	-10.8712
▁18	-10.8714
▁collection	-10.8715
▁realistic	-10.8716
▁ny	-10.8716
▁selection	-10.8719
▁fever	-10.8722
▁classes	-10.8722
dle	-10.8722
▁tackle	-10.8725
▁potty	-10.8726
▁tray	-10.873
▁mer	-10.8731
▁harm	-10.8733
▁placement	-10.8734
▁convenient	-10.8749
▁vent	-10.8749
▁ke	-10.8758
▁safely	-10.8778
ow	-10.8782
▁boxing	-10.8783
▁rob	-10.8783
▁concentrat	-10.8784
▁bracelets	-10.8789
▁parking	-10.8798
▁angles	-10.8799
▁afro	-10.8799
gar	-10.8805
▁king	-10.8824
▁occasional	-10.8831
▁cd	-10.8833
▁solutions	-10.8844
▁meant	-10.8845
▁trace	-10.885
▁chap	-10.8856
▁sparks	-10.8864
▁signs	-10.8871
▁levels	-10.8879
▁wi	-10.889
head	-10.8893
▁user	-10.8909
▁washed	-10.8911
▁cookies	-10.8943
▁blowing	-10.8963
▁lives	-10.8965
▁protein	-10.8974
▁teas	-10.8976
▁student	-10.8979
▁kings	-10.8994
▁caused	-10.8995
▁grinding	-10.8997
rete	-10.9002
▁canal	-10.9018
erry	-10.9029
▁vo	-10.9037
▁poses	-10.9046
▁abdominals	-10.905
▁purposes	-10.905
▁trop	-10.9069
▁segments	-10.907
▁marking	-10.9074
▁factor	-10.9079
▁serves	-10.908
tive	-10.9085
▁ro	-10.9097
▁ko	-10.912
▁checked	-10.9124
▁skip	-10.9124
▁exfoliat	-10.9124
ned	-10.9147
▁tissues	-10.915
▁tra	-10.9157
▁includ	-10.9165
bacteria	-10.9176
▁refer	-10.9185
▁sleeves	-10.9191
end	-10.9191
▁alternat	-10.9202
rd	-10.9204
▁injur	-10.9218
▁counts	-10.9222
▁inhal	-10.9225
▁consum	-10.9227
▁progress	-10.9235
▁rebound	-10.9237
▁register	-10.9237
▁automatic	-10.9237
▁challenging	-10.9237
▁christmas	-10.9237
▁cloud	-10.9237
▁consult	-10.9237
▁detergent	-10.9237
▁duck	-10.9237
▁excuse	-10.9237
▁household	-10.9237
▁industry	-10.9237
▁league	-10.9237
▁liquor	-10.9237
▁monitor	-10.9237
▁mortgage	-10.9237
▁neighbor	-10.9237
▁psychologist	-10.9237
▁salad	-10.9237
▁smash	-10.9237
▁upgrade	-10.9237
▁valuable	-10.9237
▁crush	-10.9237
▁dump	-10.9237
▁carolina	-10.9237
▁pretend	-10.9237
▁task	-10.9237
▁conservative	-10.9237
▁axle	-10.9237
▁elastic	-10.9237
▁silent	-10.9237
▁peak	-10.9237
▁gallon	-10.9238
▁stationary	-10.9238
▁sideways	-10.9238
▁empty	-10.9238
▁scroll	-10.9238
▁purse	-10.9238
▁organization	-10.9239
▁mad	-10.9239
▁text	-10.9239
▁review	-10.9239
▁initial	-10.9239
▁thinner	-10.924
▁kiss	-10.9242
▁shield	-10.9243
▁dragon	-10.9244
rick	-10.9248
▁bass	-10.9249
ancy	-10.9249
▁cleanser	-10.9252
▁graduat	-10.9254
▁skim	-10.9254
▁pon	-10.9256
▁ruler	-10.9257
▁mi	-10.9262
tain	-10.9263
▁suck	-10.9264
▁receiver	-10.9264
▁forest	-10.9266
cal	-10.9267
▁whoever	-10.9275
▁inspect	-10.9275
▁cur	-10.9276
▁oo	-10.9283
▁fin	-10.9283
▁latch	-10.9285
▁hamstrings	-10.9288
▁conditioner	-10.9293
▁tender	-10.9308
▁stream	-10.9314
▁adapti	-10.9318
▁ken	-10.932
3	-10.9329
▁boa	-10.9338
▁te	-10.9342
▁ticks	-10.9344
▁steeping	-10.9345
ates	-10.9347
allow	-10.9357
▁brad	-10.9359
▁12	-10.9397
▁nor	-10.9406
▁hinges	-10.9407
▁treated	-10.9407
▁si	-10.9424
▁houses	-10.9445
▁situations	-10.945
▁socks	-10.9468
▁meeting	-10.9473
ug	-10.9478
▁fleas	-10.9492
▁bars	-10.9495
pp	-10.9503
▁concern	-10.9503
▁closely	-10.9524
▁flea	-10.9531
▁combinations	-10.9539
▁trainer	-10.9562
▁sleeping	-10.9564
▁costumes	-10.958
▁decid	-10.9593
▁blending	-10.9596
▁stimulate	-10.9628
▁rats	-10.9643
let	-10.9645
▁drawer	-10.965
▁irons	-10.9661
ground	-10.9706
▁ya	-10.9711
wood	-10.9715
7	-10.9728
▁videos	-10.9745
▁indoors	-10.9745
▁char	-10.9751
▁align	-10.9762
▁q	-10.9773
▁lob	-10.9779
▁brow	-10.9784
utch	-10.9788
▁semi	-10.979
▁symbol	-10.9791
▁comfort	-10.9791
▁implement	-10.9791
▁tack	-10.9792
▁abscess	-10.9793
▁activity	-10.9793
▁afternoon	-10.9793
▁algae	-10.9793
▁broccoli	-10.9793
▁burrow	-10.9793
▁conflict	-10.9793
▁department	-10.9793
▁dinosaur	-10.9793
▁dumbbell	-10.9793
▁duty	-10.9793
▁fabulous	-10.9793
▁glow	-10.9793
▁hormone	-10.9793
▁husband	-10.9793
▁nobody	-10.9793
▁princ	-10.9793
▁response	-10.9793
▁ribcage	-10.9793
▁routine	-10.9793
▁sensitivity	-10.9793
▁storage	-10.9793
▁sturdy	-10.9793
▁certificat	-10.9793
▁clasp	-10.9793
▁climate	-10.9793
▁grill	-10.9793
▁parsley	-10.9793
▁random	-10.9793
▁recreation	-10.9793
▁crash	-10.9793
▁ocd	-10.9793
▁hollow	-10.9793
▁odor	-10.9793
▁threat	-10.9793
▁beginner	-10.9793
▁mouthpiece	-10.9793
▁bound	-10.9793
▁jet	-10.9793
▁ratio	-10.9793
▁appearance	-10.9793
▁equi	-10.9793
▁herbs	-10.9794
▁photographic	-10.9794
▁reaction	-10.9794
▁versatile	-10.9794
▁hangover	-10.9794
▁million	-10.9794
▁snowman	-10.9795
▁communicate	-10.9796
▁almond	-10.9796
▁cylinder	-10.9796
▁crust	-10.9796
▁agree	-10.9796
▁nil	-10.9797
▁highway	-10.9797
▁jas	-10.9798
▁survive	-10.9799
▁stainless	-10.9799
▁lenses	-10.9801
▁stopping	-10.9802
▁chrome	-10.9803
▁sent	-10.9803
▁psychology	-10.9803
▁dries	-10.9805
▁fitness	-10.9806
▁viewer	-10.9807
▁cooker	-10.9829
▁sweater	-10.9829
▁worms	-10.9829
ite	-10.9833
▁hanger	-10.9834
▁knots	-10.9837
▁ph	-10.9837
▁masse	-10.9846
▁nap	-10.9859
▁entr	-10.9868
▁locks	-10.9877
▁pest	-10.9887
uring	-10.9894
▁lu	-10.9903
▁bearing	-10.9915
▁skiing	-10.9946
▁trac	-10.9982
mp	-11.0004
▁bi	-11.0025
▁members	-11.0031
▁rating	-11.0037
thus	-11.0037
inkle	-11.0076
▁drills	-11.0078
▁bug	-11.0094
▁threads	-11.0112
▁recipe	-11.0114
▁movie	-11.0115
▁operat	-11.0118
▁expression	-11.0118
▁cookie	-11.0123
▁scrap	-11.013
▁ben	-11.0135
▁mile	-11.0137
▁rot	-11.0139
▁sole	-11.0145
ized	-11.015
▁pit	-11.0152
nia	-11.016
▁rug	-11.0174
▁hits	-11.0181
▁massag	-11.0213
▁ti	-11.0222
j	-11.0223
▁dots	-11.0224
▁assemble	-11.0239
▁athlet	-11.024
▁toys	-11.0247
▁ta	-11.0262
▁cont	-11.0263
▁pairing	-11.0289
▁flags	-11.0299
▁ding	-11.0302
▁60	-11.0305
8	-11.0313
ors	-11.0316
▁14	-11.0319
▁ma	-11.035
▁internal	-11.0364
iti	-11.0365
▁bands	-11.0365
▁branch	-11.0377
▁accept	-11.0379
▁appear	-11.0381
▁surf	-11.0381
▁manage	-11.0381
▁habit	-11.0381
▁dramatic	-11.0381
▁blah	-11.0381
▁bouncing	-11.0381
▁caliper	-11.0381
▁casserole	-11.0381
▁delicate	-11.0381
▁diaper	-11.0381
▁fatigue	-11.0381
▁frog	-11.0381
▁fundamental	-11.0381
▁invented	-11.0381
▁landscape	-11.0381
▁papaya	-11.0381
▁practitioner	-11.0381
▁principle	-11.0381
▁regulation	-11.0381
▁sneak	-11.0381
▁spiral	-11.0381
▁trigger	-11.0381
▁uncomfortable	-11.0381
▁uniform	-11.0381
▁yank	-11.0381
▁nerve	-11.0381
▁bleach	-11.0381
▁lunch	-11.0381
▁contour	-11.0381
▁shimmy	-11.0381
▁ledge	-11.0381
▁composition	-11.0381
▁southern	-11.0381
▁security	-11.0382
▁andrews	-11.0382
▁odd	-11.0382
▁private	-11.0382
▁diving	-11.0382
▁grit	-11.0382
▁nearby	-11.0382
▁medication	-11.0382
▁funnel	-11.0382
▁exit	-11.0382
▁honest	-11.0382
▁crew	-11.0382
▁injuries	-11.0383
▁hale	-11.0383
▁mural	-11.0385
ficial	-11.0386
▁coin	-11.0386
▁halfway	-11.0386
▁sequence	-11.0387
▁loud	-11.0387
▁personality	-11.0387
▁coolant	-11.0387
▁solve	-11.0388
▁specialty	-11.0388
▁solder	-11.0389
▁luck	-11.039
▁related	-11.0391
▁truck	-11.0391
▁wrinkle	-11.0392
▁parker	-11.0394
▁postures	-11.0397
berry	-11.0401
▁chopped	-11.0407
▁sewn	-11.041
▁photographing	-11.0411
hill	-11.0421
▁aqua	-11.0423
▁porc	-11.0431
▁presses	-11.0437
▁shooter	-11.0438
▁smoking	-11.0439
▁intervals	-11.0471
▁resources	-11.0471
▁lungs	-11.0471
▁career	-11.0471
▁mixer	-11.0483
▁magazines	-11.0487
▁glasses	-11.0487
ley	-11.0487
▁developed	-11.0521
▁stat	-11.0524
▁brewing	-11.0533
ach	-11.0537
▁spice	-11.0552
▁feeding	-11.0553
▁ra	-11.0565
iness	-11.0569
que	-11.0571
▁freestyle	-11.0602
use	-11.0616
▁wrists	-11.0621
▁actions	-11.0623
ice	-11.0657
▁sock	-11.0662
▁wires	-11.0662
▁handl	-11.0664
▁concerns	-11.0669
▁commands	-11.0706
▁stones	-11.0706
via	-11.0709
▁rec	-11.0718
▁pops	-11.0724
▁member	-11.0747
1	-11.0747
page	-11.0756
▁ended	-11.0765
▁prepp	-11.0775
ack	-11.078
ba	-11.0792
▁sing	-11.0795
▁differences	-11.0801
▁planted	-11.0809
▁sources	-11.0818
▁gels	-11.0835
▁mac	-11.0844
▁minim	-11.0856
▁tee	-11.0879
▁doors	-11.0903
ana	-11.0915
unk	-11.0934
back	-11.0934
▁cheers	-11.0938
▁frost	-11.0943
hood	-11.0944
lock	-11.0953
ified	-11.0965
ible	-11.0965
▁raft	-11.0968
▁measurements	-11.0971
▁recover	-11.0987
▁provid	-11.0991
▁surprise	-11.0997
gh	-11.1001
▁infect	-11.1004
▁afford	-11.1004
▁effort	-11.1005
▁whisk	-11.1005
▁sail	-11.1005
▁bulgaria	-11.1006
▁canadian	-11.1006
▁cichlids	-11.1006
▁compartment	-11.1006
▁corrosion	-11.1006
▁german	-11.1006
▁himself	-11.1006
▁indicator	-11.1006
▁lizard	-11.1006
▁mechanism	-11.1006
▁miami	-11.1006
▁nervous	-11.1006
▁ocean	-11.1006
▁ourselves	-11.1006
▁physician	-11.1006
▁promenade	-11.1006
▁quilt	-11.1006
▁refrigerator	-11.1006
▁significant	-11.1006
▁thermometer	-11.1006
▁tuxedo	-11.1006
▁undercoat	-11.1006
▁varieties	-11.1006
▁jawfish	-11.1006
▁decreas	-11.1006
▁egypt	-11.1006
▁laugh	-11.1006
▁fungus	-11.1006
▁accident	-11.1006
▁exciting	-11.1006
▁trophy	-11.1006
▁trash	-11.1006
▁convertible	-11.1006
▁friday	-11.1006
▁silk	-11.1006
▁fluff	-11.1006
▁host	-11.1006
▁skateboard	-11.1006
▁cavit	-11.1006
▁bridle	-11.1006
▁denture	-11.1006
▁shedding	-11.1006
▁disabilities	-11.1006
▁native	-11.1006
▁rake	-11.1007
▁calves	-11.1007
▁content	-11.1007
▁clinic	-11.1007
▁laun	-11.1007
▁surgery	-11.1007
▁antique	-11.1007
▁fantastic	-11.1007
▁shaking	-11.1007
▁picket	-11.1008
▁lap	-11.1008
▁greg	-11.1008
▁tarp	-11.1008
ward	-11.1008
▁breve	-11.1008
▁lb	-11.1009
▁cardio	-11.101
▁flop	-11.101
▁primer	-11.101
▁wil	-11.101
▁football	-11.1012
▁volt	-11.1012
ww	-11.1012
▁headache	-11.1012
▁format	-11.1013
▁reminder	-11.1013
▁disease	-11.1014
▁mature	-11.1014
▁proof	-11.1017
▁flatten	-11.1017
▁basement	-11.102
▁lace	-11.1022
▁vel	-11.1022
▁lane	-11.1025
▁grey	-11.1026
▁producer	-11.1027
▁killer	-11.1028
▁tanning	-11.1029
▁fighter	-11.103
▁camel	-11.1035
▁overcome	-11.1038
▁outward	-11.1043
dry	-11.1046
▁farther	-11.1046
▁friendly	-11.1047
▁meter	-11.1052
▁success	-11.1056
▁wiggl	-11.1059
▁studie	-11.1063
▁bleeding	-11.1065
▁gre	-11.1066
▁folks	-11.1067
▁effectively	-11.1067
▁scarf	-11.1068
▁required	-11.107
▁sparkler	-11.1075
▁renting	-11.1094
halo	-11.1101
lar	-11.1104
▁bo	-11.1108
▁na	-11.1122
▁tied	-11.1123
▁fortunate	-11.1123
▁explained	-11.1125
▁tactic	-11.113
▁dye	-11.1131
▁actors	-11.1172
▁matt	-11.1187
▁smok	-11.1206
▁guests	-11.1224
▁planet	-11.1235
▁boxers	-11.1236
▁culture	-11.124
▁bur	-11.1247
▁loved	-11.1268
▁circu	-11.1283
▁operate	-11.1292
▁sum	-11.1292
▁compromise	-11.1305
▁proteins	-11.133
▁designs	-11.1346
qu	-11.1354
▁drinks	-11.1366
▁agents	-11.1366
evan	-11.1369
▁sold	-11.1396
▁procedure	-11.1409
▁clai	-11.1417
▁eighth	-11.1423
rk	-11.1431
▁impress	-11.1443
▁pointer	-11.1447
▁recognize	-11.1448
tra	-11.145
▁cutter	-11.1452
▁upward	-11.1459
▁services	-11.1462
▁shadows	-11.1478
▁thanks	-11.1479
▁wav	-11.1481
▁methods	-11.1496
tta	-11.1513
▁files	-11.1514
ache	-11.1516
fter	-11.1518
and	-11.1533
▁restaurants	-11.1545
ial	-11.1548
ummy	-11.156
▁dean	-11.1565
bone	-11.1585
dab	-11.1593
▁kayaks	-11.1598
▁compete	-11.1607
stick	-11.1611
▁bleed	-11.1616
▁determin	-11.1617
form	-11.162
ball	-11.1636
▁ge	-11.1638
ngling	-11.1641
▁vir	-11.1641
lain	-11.1644
▁markers	-11.1644
ister	-11.1645
▁strain	-11.1666
▁industri	-11.1668
ector	-11.1671
▁overlap	-11.1672
▁apr	-11.1673
▁attempt	-11.1673
▁awesome	-11.1673
▁celery	-11.1673
▁comfortably	-11.1673
▁crevices	-11.1673
▁cricket	-11.1673
▁depot	-11.1673
▁download	-11.1673
▁fingernail	-11.1673
▁flesh	-11.1673
▁frozen	-11.1673
▁glitter	-11.1673
▁incredibl	-11.1673
▁maneuver	-11.1673
▁melissa	-11.1673
▁moisturizing	-11.1673
▁mulch	-11.1673
▁nowadays	-11.1673
▁shock	-11.1673
▁snatch	-11.1673
▁tablespoon	-11.1673
▁translucent	-11.1673
▁transport	-11.1673
▁glute	-11.1673
▁newspaper	-11.1673
▁pendant	-11.1673
▁kyle	-11.1673
▁ultimate	-11.1673
▁intense	-11.1673
▁weapon	-11.1673
▁squish	-11.1673
▁properties	-11.1673
▁atlant	-11.1673
▁rattle	-11.1673
▁disinfectant	-11.1673
▁accessory	-11.1673
▁laur	-11.1673
▁circulation	-11.1673
▁accessible	-11.1673
▁elevation	-11.1674
▁slant	-11.1674
▁participant	-11.1674
▁polic	-11.1674
▁truth	-11.1674
▁waterproof	-11.1675
▁identified	-11.1675
▁mcg	-11.1675
▁infant	-11.1675
▁tempo	-11.1675
▁oak	-11.1676
▁development	-11.1676
▁capacity	-11.1677
▁crowd	-11.168
▁consumer	-11.1687
▁piercing	-11.1688
▁consideration	-11.169
▁flatter	-11.1692
▁styling	-11.1697
▁carbohydrates	-11.1701
▁tangle	-11.1705
▁chef	-11.1706
▁footage	-11.1707
▁fa	-11.1709
▁harden	-11.1714
▁ab	-11.1723
▁sharpening	-11.1728
▁favorites	-11.1732
ole	-11.1735
ola	-11.1736
ied	-11.1737
▁moist	-11.1737
▁referr	-11.174
▁dart	-11.1743
▁formal	-11.1747
▁attract	-11.1755
▁enable	-11.1765
▁stressed	-11.1768
▁bout	-11.1774
▁enchiladas	-11.1775
▁costs	-11.1777
▁vani	-11.1783
▁mechanics	-11.1802
▁lint	-11.1819
▁tar	-11.1831
▁gums	-11.185
▁petals	-11.185
▁smoothly	-11.1858
▁parting	-11.1873
▁simpler	-11.1879
▁spec	-11.1886
▁discussed	-11.1892
▁dan	-11.1892
va	-11.1897
▁sight	-11.1928
▁introduc	-11.1929
▁prices	-11.1933
▁stuffing	-11.1943
▁west	-11.1953
▁masks	-11.1966
▁hurting	-11.197
tion	-11.1975
▁expressions	-11.1982
▁tripods	-11.199
ium	-11.1992
▁rely	-11.2004
▁trainers	-11.2007
▁slot	-11.2016
nts	-11.2016
ddy	-11.2036
▁flo	-11.2068
▁execute	-11.207
▁outdoors	-11.2077
▁lat	-11.2096
▁operation	-11.2121
▁chunk	-11.2121
▁director	-11.2127
▁element	-11.213
ud	-11.2134
bum	-11.2164
▁breaths	-11.218
▁pil	-11.2189
▁rollers	-11.2197
▁towels	-11.2221
und	-11.2233
▁ages	-11.2238
ger	-11.2273
terior	-11.2276
▁gla	-11.2291
▁springs	-11.2297
ill	-11.2304
hand	-11.2309
9	-11.2322
▁surround	-11.2323
▁chopp	-11.2324
while	-11.2326
▁convenien	-11.2333
▁caus	-11.2356
▁flows	-11.2365
▁thorough	-11.237
▁liter	-11.2376
▁associat	-11.2385
▁bunn	-11.2386
ban	-11.2386
▁consist	-11.2386
emost	-11.2387
etti	-11.2387
▁disclos	-11.2387
▁excite	-11.2387
▁scoot	-11.2387
▁airport	-11.2387
▁antifreeze	-11.2387
▁backyard	-11.2387
▁calcium	-11.2387
▁coordinate	-11.2387
▁divorce	-11.2387
▁elegant	-11.2387
▁enamel	-11.2387
▁enhance	-11.2387
▁escape	-11.2387
▁fragile	-11.2387
▁gasket	-11.2387
▁grape	-11.2387
▁infuser	-11.2387
▁jesus	-11.2387
▁language	-11.2387
▁responsible	-11.2387
▁silicone	-11.2387
▁simmer	-11.2387
▁tobacco	-11.2387
▁toothbrush	-11.2387
▁toxoplasmosis	-11.2387
▁underwire	-11.2387
▁unicycle	-11.2387
▁vanveen	-11.2387
▁ashley	-11.2387
▁blush	-11.2387
▁flies	-11.2387
▁proceed	-11.2387
▁financi	-11.2387
▁linebacker	-11.2387
▁crucial	-11.2387
▁navigat	-11.2387
▁chisel	-11.2387
▁incline	-11.2387
▁karie	-11.2387
▁gauge	-11.2387
▁portrait	-11.2387
▁sunny	-11.2387
▁throat	-11.2387
▁edible	-11.2387
▁university	-11.2387
▁puffiness	-11.2387
▁failure	-11.2388
▁goggles	-11.2388
▁tomorrow	-11.2388
▁entertain	-11.2388
▁blot	-11.2388
▁entrance	-11.2388
▁slate	-11.2388
▁network	-11.2388
▁centerpiece	-11.2388
▁clogg	-11.2388
▁martini	-11.2388
▁bail	-11.2389
▁unlike	-11.2389
▁creme	-11.2389
▁wow	-11.2389
▁stripper	-11.2389
▁devices	-11.2389
▁performance	-11.2389
▁emergency	-11.2389
▁bang	-11.2389
▁theater	-11.2389
▁lashes	-11.2389
▁jig	-11.239
▁attachment	-11.239
▁divide	-11.239
▁alive	-11.239
▁reflection	-11.239
▁powerful	-11.2393
▁worrie	-11.2393
▁moisturizer	-11.2393
▁commit	-11.2394
▁upwards	-11.2394
▁platter	-11.2394
▁calculat	-11.2395
▁sex	-11.2395
▁alignment	-11.2395
▁neckline	-11.2397
▁footwork	-11.2398
▁pill	-11.2398
symmetric	-11.2399
▁tw	-11.24
▁enduran	-11.2402
vig	-11.2404
lot	-11.2407
▁seni	-11.2407
▁jane	-11.2407
▁fasten	-11.2407
▁tonight	-11.2408
▁fry	-11.2412
▁molecules	-11.2418
▁sewer	-11.2418
▁fra	-11.2422
tories	-11.2424
▁alternate	-11.2436
▁cannon	-11.2444
▁uno	-11.2445
▁handler	-11.2447
▁surrounding	-11.2451
▁flipp	-11.2452
▁developer	-11.2452
mes	-11.2462
▁brushed	-11.247
▁securely	-11.247
▁melted	-11.247
erial	-11.2474
zen	-11.2481
▁sift	-11.2484
devil	-11.2496
▁pelvis	-11.2497
▁ship	-11.2503
dic	-11.2505
▁loosely	-11.2505
▁dresser	-11.2507
▁clues	-11.2517
▁parrots	-11.2517
▁slides	-11.2526
▁writer	-11.2527
▁cleanse	-11.2533
▁bagg	-11.254
go	-11.256
▁selected	-11.2564
▁organize	-11.2567
▁mast	-11.2577
▁cloves	-11.2578
cap	-11.2595
▁flavored	-11.2609
▁rotat	-11.2612
▁200	-11.2632
▁fade	-11.2633
▁toilets	-11.2634
▁golfer	-11.2634
▁heating	-11.2641
▁stimulat	-11.2649
▁individuals	-11.2671
▁dressing	-11.2685
▁scrape	-11.2687
tory	-11.2706
▁bugs	-11.2722
▁sta	-11.2733
▁dome	-11.2747
▁fins	-11.275
▁containers	-11.2753
▁mental	-11.2766
▁fork	-11.2786
▁wors	-11.2791
▁russ	-11.2795
▁flor	-11.2809
▁def	-11.2831
▁relaxing	-11.2842
▁males	-11.2844
▁detectors	-11.2865
▁chan	-11.2868
eon	-11.287
▁ham	-11.2883
▁swamp	-11.2886
▁runner	-11.2886
▁heated	-11.2889
▁tricep	-11.2889
▁fe	-11.289
▁earring	-11.2891
van	-11.2892
▁guest	-11.2893
teri	-11.2897
▁parent	-11.2898
▁kits	-11.2907
▁functions	-11.2949
▁11	-11.2956
dge	-11.2969
▁females	-11.297
role	-11.2977
▁treatments	-11.2979
▁burning	-11.2983
▁mountains	-11.2992
▁boxer	-11.3009
▁shades	-11.3011
▁carve	-11.3025
▁slices	-11.3044
ah	-11.305
▁indirect	-11.3051
idding	-11.3063
▁centering	-11.3067
field	-11.3068
▁bri	-11.3071
4	-11.3089
style	-11.3094
book	-11.3095
win	-11.3096
▁sharpen	-11.3112
▁matching	-11.3119
ura	-11.3125
▁isolate	-11.3139
▁explode	-11.3145
▁stan	-11.3154
▁distinct	-11.3156
▁volley	-11.3156
▁accuracy	-11.3156
▁beneficial	-11.3156
▁bicep	-11.3156
▁bruni	-11.3156
▁cilantro	-11.3156
▁compact	-11.3156
▁daniel	-11.3156
▁discolor	-11.3156
▁emphasize	-11.3156
▁hurricane	-11.3156
▁ladder	-11.3156
▁maddaloni	-11.3156
▁petersburg	-11.3156
▁professor	-11.3156
▁pyramid	-11.3156
▁reapply	-11.3156
▁seafood	-11.3156
▁silhouette	-11.3156
▁smart	-11.3156
▁squad	-11.3156
▁strategy	-11.3156
▁submerge	-11.3156
▁suction	-11.3156
▁tattoo	-11.3156
▁warrior	-11.3156
▁herself	-11.3156
▁interfere	-11.3156
▁yarn	-11.3156
▁firing	-11.3156
▁somehow	-11.3156
▁undulati	-11.3156
▁jim	-11.3156
▁shallow	-11.3156
▁ryan	-11.3156
oxida	-11.3157
▁framing	-11.3157
▁slab	-11.3157
▁salary	-11.3157
▁barbie	-11.3157
▁vibration	-11.3157
▁possibilities	-11.3157
▁rubbed	-11.3157
▁trimmed	-11.3157
ratche	-11.3157
▁overnight	-11.3157
▁ginger	-11.3158
▁snowboard	-11.3158
▁intention	-11.3158
▁rach	-11.3159
▁broad	-11.3159
▁poker	-11.316
▁mike	-11.3162
▁sizzl	-11.3163
▁irritat	-11.3163
▁invit	-11.3164
▁knit	-11.3164
▁brain	-11.3166
▁epi	-11.3167
▁ac	-11.3168
▁spotting	-11.3168
▁fee	-11.317
▁adjustable	-11.3171
hee	-11.3173
▁bumper	-11.3175
▁reuse	-11.3182
▁dive	-11.3184
▁steer	-11.3186
▁recent	-11.3186
▁undo	-11.3186
▁exposed	-11.3191
▁monthly	-11.3193
▁temporar	-11.3194
▁wins	-11.3196
▁manually	-11.3196
▁camping	-11.3199
ise	-11.32
atic	-11.3208
▁differently	-11.3212
▁warn	-11.3222
bi	-11.3231
▁frosting	-11.3236
▁curved	-11.3241
▁minerals	-11.3254
▁hu	-11.3256
▁span	-11.3256
▁rounds	-11.3261
▁burner	-11.3268
▁cooler	-11.3275
▁lar	-11.3284
▁ram	-11.3285
▁instructions	-11.3297
▁jacki	-11.3304
▁fuller	-11.3315
fic	-11.3333
▁ty	-11.3342
▁slope	-11.3377
▁cameras	-11.3383
hoe	-11.3387
▁obstacles	-11.3407
▁che	-11.342
ches	-11.3464
▁repeats	-11.3465
▁settings	-11.3471
▁wok	-11.3473
▁procedures	-11.3474
flow	-11.3478
met	-11.3514
▁stirr	-11.3515
▁blocker	-11.3548
▁buyer	-11.3553
lance	-11.3571
▁carb	-11.3591
long	-11.36
▁shirts	-11.3603
▁planne	-11.3607
▁bother	-11.3608
▁popp	-11.3634
ries	-11.3638
▁slop	-11.3645
▁twisted	-11.3652
all	-11.3655
▁aces	-11.3678
50	-11.3683
▁obstacle	-11.3724
tors	-11.3726
▁spark	-11.3726
▁disk	-11.3726
▁ka	-11.3729
▁organiz	-11.3733
ext	-11.3734
▁tast	-11.3752
▁spade	-11.3753
▁backward	-11.3767
▁str	-11.3799
▁feelings	-11.3802
▁involv	-11.384
▁drives	-11.3854
ogen	-11.3856
rie	-11.3868
▁pockets	-11.3881
▁gener	-11.3892
▁receiv	-11.3912
▁stud	-11.3913
by	-11.3919
▁shutt	-11.3922
view	-11.3925
▁pearl	-11.3925
mail	-11.3928
case	-11.3929
keep	-11.3929
personal	-11.393
▁negatives	-11.3938
ette	-11.3949
▁hol	-11.3949
▁accumulate	-11.3958
▁strand	-11.396
▁establish	-11.396
▁publish	-11.396
▁thoughts	-11.3961
stock	-11.3965
▁tru	-11.3967
▁expos	-11.3982
▁rais	-11.3985
▁scienti	-11.3985
▁poke	-11.3985
olution	-11.3986
riction	-11.3987
▁instruct	-11.3988
▁fool	-11.3989
▁fantas	-11.3989
▁watt	-11.3989
▁auto	-11.3989
ization	-11.3989
▁favor	-11.399
▁croco	-11.399
▁accomplish	-11.399
▁blind	-11.399
▁embellish	-11.399
▁flutter	-11.399
▁modify	-11.399
▁survey	-11.399
▁asynch	-11.399
▁behalf	-11.399
▁bristle	-11.399
▁century	-11.399
▁chameleon	-11.399
▁cocktail	-11.399
▁conclude	-11.399
▁dementia	-11.399
▁denim	-11.399
▁deuce	-11.399
▁dizzy	-11.399
▁enlarger	-11.399
▁gadget	-11.399
▁gorgeous	-11.399
▁grapevine	-11.399
▁handspring	-11.399
▁hazard	-11.399
▁igoogle	-11.399
▁influence	-11.399
▁nitrogen	-11.399
▁outlook	-11.399
▁perimeter	-11.399
▁poetry	-11.399
▁precise	-11.399
▁pupil	-11.399
▁remedies	-11.399
▁repellent	-11.399
▁scarecrow	-11.399
▁streak	-11.399
▁syndrome	-11.399
▁tarleton	-11.399
▁therapeutic	-11.399
▁vorrac	-11.399
▁wheelchair	-11.399
▁adhd	-11.399
▁copyright	-11.399
▁daisy	-11.399
▁rush	-11.399
▁squirt	-11.399
▁glob	-11.399
▁larew	-11.399
▁craps	-11.399
▁grandmother	-11.399
▁pronounced	-11.399
▁robot	-11.399
▁title	-11.399
▁tuning	-11.399
▁tabletop	-11.399
▁cement	-11.399
▁salsa	-11.399
▁ticket	-11.399
▁swell	-11.399
▁socket	-11.399
▁umb	-11.399
▁forehead	-11.399
▁comedian	-11.399
▁scrapbook	-11.399
▁bash	-11.399
▁fringe	-11.399
▁initiate	-11.399
▁plumber	-11.399
▁mites	-11.399
▁sketch	-11.399
▁swab	-11.399
▁orientation	-11.3991
▁neutralize	-11.3991
▁weekend	-11.3991
▁reef	-11.3991
▁firefly	-11.3991
▁porous	-11.3991
▁reproduction	-11.3991
▁upright	-11.3991
▁illnesses	-11.3991
▁population	-11.3992
▁velocity	-11.3992
▁keyboard	-11.3993
▁sara	-11.3993
▁manageable	-11.3993
▁diminished	-11.3994
▁coil	-11.3994
▁28	-11.3994
▁artists	-11.3996
▁assum	-11.3998
▁swan	-11.3998
▁coarser	-11.3999
▁graphic	-11.3999
▁scratches	-11.4
▁nest	-11.4
▁essen	-11.4
▁suggestion	-11.4001
▁numer	-11.4005
▁16	-11.4006
▁leftover	-11.4007
▁lily	-11.4008
▁thoroughly	-11.4009
▁voc	-11.401
▁warmth	-11.401
ison	-11.4013
▁balm	-11.4014
▁stabilized	-11.4016
▁formation	-11.4019
▁established	-11.4019
▁translate	-11.402
rian	-11.4022
▁emb	-11.4022
▁backbone	-11.4023
▁stu	-11.403
▁inspired	-11.4035
▁analyz	-11.4037
▁christi	-11.4045
▁calories	-11.4049
▁noodles	-11.4049
▁healing	-11.4054
▁engineer	-11.4055
▁worker	-11.4063
▁catches	-11.4065
▁individually	-11.4067
▁scallops	-11.4072
ep	-11.4087
▁stairs	-11.4098
▁smoother	-11.4104
▁kneel	-11.4106
▁calling	-11.411
▁dishe	-11.4119
▁decks	-11.4124
▁interior	-11.4139
lien	-11.4141
▁shears	-11.4144
urdle	-11.4146
▁slap	-11.4149
▁burg	-11.4153
lates	-11.4161
sons	-11.4164
▁bucks	-11.4168
▁z	-11.4185
▁athlete	-11.4197
▁kites	-11.4204
▁machines	-11.4219
▁listing	-11.4245
▁beautifully	-11.4262
▁disks	-11.4263
▁minimiz	-11.4275
▁breaker	-11.4307
▁chunks	-11.4312
▁theory	-11.4315
▁importan	-11.4319
▁hero	-11.4327
▁examin	-11.4329
▁eighths	-11.4336
▁insur	-11.4353
▁skipp	-11.4374
▁cle	-11.4376
▁movies	-11.4385
▁las	-11.4387
ez	-11.4388
▁loa	-11.4405
rish	-11.4414
▁org	-11.4419
reit	-11.4427
▁dripp	-11.443
▁matte	-11.4432
▁factors	-11.4432
▁suits	-11.4449
mit	-11.4451
▁nicer	-11.4472
▁mu	-11.4475
▁panels	-11.4483
ern	-11.4487
▁rains	-11.4499
ang	-11.4519
▁amp	-11.4537
isco	-11.4547
▁clippers	-11.4557
ware	-11.4566
▁tint	-11.4568
▁sc	-11.4573
ub	-11.4601
▁timer	-11.4605
ax	-11.4613
▁dealership	-11.463
▁festival	-11.4631
▁demonstrat	-11.464
▁sau	-11.4652
▁waxing	-11.4658
▁rese	-11.4669
vas	-11.4686
▁pale	-11.4723
▁heal	-11.4729
▁rider	-11.4733
00	-11.4735
▁lateral	-11.4775
nter	-11.4801
▁spr	-11.4829
▁folding	-11.483
▁carpe	-11.4833
▁70	-11.4834
slide	-11.4836
common	-11.4838
glass	-11.4838
mark	-11.4838
stand	-11.4838
beat	-11.4838
meal	-11.4841
▁80	-11.4848
▁testing	-11.4863
▁offers	-11.4867
▁24	-11.4867
▁reli	-11.487
▁dent	-11.487
▁lubricate	-11.4875
▁relieve	-11.4875
▁backpack	-11.4879
▁energ	-11.4881
▁according	-11.4881
▁guarantee	-11.4881
▁integrate	-11.4882
▁advantages	-11.4884
▁poor	-11.4886
▁fr	-11.4888
▁trans	-11.489
▁moisturize	-11.4891
▁staple	-11.4893
▁granula	-11.4894
▁react	-11.4897
▁complex	-11.4897
▁etc	-11.4897
▁applica	-11.4899
lumin	-11.4899
▁jerk	-11.4899
▁shout	-11.4899
▁vacuum	-11.4899
▁amplifier	-11.4899
▁appetite	-11.4899
▁bladder	-11.4899
▁blemish	-11.4899
▁caribbean	-11.4899
▁channel	-11.4899
▁coordination	-11.4899
▁decade	-11.4899
▁diffuse	-11.4899
▁engaging	-11.4899
▁enzyme	-11.4899
▁expansion	-11.4899
▁hairspray	-11.4899
▁hulk	-11.4899
▁knuckle	-11.4899
▁nonsense	-11.4899
▁offensive	-11.4899
▁racquet	-11.4899
▁rapid	-11.4899
▁receipt	-11.4899
▁remote	-11.4899
▁soothing	-11.4899
▁stool	-11.4899
▁transaction	-11.4899
▁tremendous	-11.4899
▁tumbling	-11.4899
▁vendors	-11.4899
▁veterinar	-11.4899
▁vital	-11.4899
▁cherry	-11.4899
▁icebreaker	-11.4899
▁penetrat	-11.4899
▁region	-11.4899
▁sprint	-11.4899
▁hobby	-11.4899
▁resemble	-11.4899
▁adobe	-11.4899
▁storm	-11.4899
▁criss	-11.4899
▁coast	-11.4899
▁disconnect	-11.4899
▁division	-11.4899
▁awful	-11.4899
olster	-11.4899
▁administrat	-11.4899
▁western	-11.4899
▁quote	-11.4899
▁desk	-11.4899
▁fumes	-11.4899
▁fakie	-11.4899
▁emulsion	-11.4899
▁ranch	-11.4899
▁latte	-11.49
▁plumbing	-11.49
▁720	-11.49
▁drape	-11.49
▁ripped	-11.49
▁zipper	-11.49
▁mango	-11.4901
▁labor	-11.4901
▁complexion	-11.4901
▁radial	-11.4901
▁trapped	-11.4901
▁inject	-11.4902
▁halt	-11.4902
▁bronzer	-11.4902
▁stunt	-11.4902
▁affordable	-11.4902
▁hydrated	-11.4903
indication	-11.4904
▁alter	-11.4904
▁17	-11.4904
▁assembly	-11.4905
▁buildup	-11.4906
▁aquarium	-11.4906
▁drainage	-11.4906
▁manager	-11.4906
▁refined	-11.4908
▁grand	-11.4908
▁marble	-11.4908
▁brighten	-11.4909
▁strainer	-11.491
▁contribute	-11.491
▁dimensional	-11.4914
▁exhaling	-11.4914
▁removal	-11.4916
▁increases	-11.4917
▁prevention	-11.4919
▁attaches	-11.492
▁lawn	-11.4922
▁bust	-11.4924
▁internally	-11.4925
▁propel	-11.4928
▁toenails	-11.4938
▁comedy	-11.4938
▁organ	-11.4943
▁vice	-11.4946
▁officer	-11.4948
▁mee	-11.4962
▁ven	-11.4964
▁reporter	-11.4966
▁sill	-11.4973
▁cracker	-11.4977
tz	-11.4978
▁dad	-11.499
▁compet	-11.499
▁emotions	-11.499
▁steamer	-11.499
▁missed	-11.4991
20	-11.4996
▁gill	-11.4996
▁processes	-11.4997
▁died	-11.5005
▁skis	-11.5009
▁ni	-11.5014
▁kenn	-11.5017
▁separated	-11.5026
tended	-11.5044
suasive	-11.5045
▁lag	-11.505
▁mor	-11.5051
▁ki	-11.5054
▁filet	-11.5054
▁readi	-11.5057
▁scratching	-11.5068
▁diver	-11.507
ifu	-11.5071
ffic	-11.5082
▁hon	-11.5098
▁fet	-11.5099
ington	-11.5099
▁cal	-11.5108
▁pine	-11.512
▁politic	-11.5137
▁switching	-11.5141
▁infections	-11.5144
ggy	-11.515
allet	-11.5195
▁cab	-11.5196
nate	-11.5205
▁song	-11.5216
▁triceps	-11.5227
▁jog	-11.5239
▁dec	-11.5246
▁burned	-11.525
▁directors	-11.5254
bit	-11.5265
manda	-11.5284
▁distribut	-11.5296
▁occurre	-11.5332
▁recipes	-11.5334
▁guards	-11.5335
non	-11.5352
▁environmental	-11.5364
▁juic	-11.537
▁packing	-11.5371
▁inflat	-11.5407
▁hooked	-11.5484
▁imagina	-11.5507
▁depend	-11.551
▁packages	-11.5549
tha	-11.557
hopping	-11.5584
23	-11.5602
ird	-11.5609
▁500	-11.5619
▁ran	-11.5622
▁clove	-11.5634
▁choo	-11.5641
▁journal	-11.5648
▁gum	-11.5649
▁actor	-11.5649
can	-11.565
▁occasion	-11.5657
▁petal	-11.5674
▁har	-11.5676
▁wa	-11.57
ppy	-11.5706
▁bake	-11.5707
▁fil	-11.5712
▁punching	-11.5717
▁ug	-11.5719
▁trib	-11.5721
amper	-11.5745
▁robe	-11.5775
▁perm	-11.578
▁ze	-11.5787
worms	-11.581
gan	-11.5829
mous	-11.5833
cake	-11.5835
▁weigh	-11.5838
clock	-11.584
▁bou	-11.588
▁lov	-11.588
▁psycholog	-11.588
▁insulate	-11.5881
ixing	-11.5883
▁absolut	-11.5884
▁temp	-11.5885
ature	-11.5889
▁locate	-11.5889
tually	-11.589
▁define	-11.589
▁compress	-11.5892
alic	-11.5893
cular	-11.5894
▁express	-11.5897
▁confine	-11.5898
▁enclos	-11.5899
▁drama	-11.5899
▁discou	-11.5899
▁reinstall	-11.5899
njo	-11.5899
▁acoustic	-11.5899
▁adhesive	-11.5899
▁altogether	-11.5899
▁arrow	-11.5899
▁backstroke	-11.5899
▁bamboo	-11.5899
▁banana	-11.5899
▁bandsaw	-11.5899
▁buffalo	-11.5899
▁chuck	-11.5899
▁considerably	-11.5899
▁dandasana	-11.5899
▁deflection	-11.5899
▁denial	-11.5899
▁destination	-11.5899
▁distinguish	-11.5899
▁esteem	-11.5899
▁extraction	-11.5899
▁families	-11.5899
▁gloomy	-11.5899
▁illustrate	-11.5899
▁illustrator	-11.5899
▁improvisation	-11.5899
▁intimidate	-11.5899
▁knead	-11.5899
▁monkey	-11.5899
▁mushy	-11.5899
▁paragraph	-11.5899
▁pliable	-11.5899
▁possum	-11.5899
▁printmaking	-11.5899
▁promote	-11.5899
▁psychiatrist	-11.5899
▁responsibility	-11.5899
▁revenue	-11.5899
▁satisf	-11.5899
▁saturday	-11.5899
▁scrunch	-11.5899
▁shiraz	-11.5899
▁smirnoff	-11.5899
▁solitaire	-11.5899
▁spiritual	-11.5899
▁spouse	-11.5899
▁sunglasses	-11.5899
▁switzerland	-11.5899
▁toothpaste	-11.5899
▁tortoise	-11.5899
▁yolk	-11.5899
▁activate	-11.5899
▁amelia	-11.5899
▁bank	-11.5899
▁impart	-11.5899
▁peddle	-11.5899
▁sensor	-11.5899
▁audio	-11.5899
▁fisherman	-11.5899
▁strict	-11.5899
cadill	-11.5899
▁commode	-11.5899
▁francisco	-11.5899
▁germs	-11.5899
▁reduction	-11.5899
▁slicing	-11.5899
▁spacing	-11.5899
▁shimmer	-11.5899
▁shelter	-11.5899
▁jones	-11.5899
▁serpentine	-11.5899
▁meditat	-11.5899
▁slick	-11.5899
▁venom	-11.5899
▁diesel	-11.5899
▁displace	-11.5899
▁teammate	-11.5899
▁limp	-11.5899
▁magnetism	-11.5899
▁davis	-11.5899
▁cleft	-11.5899
▁sencha	-11.5899
▁residen	-11.5899
▁snack	-11.5899
▁assessment	-11.5899
▁marsh	-11.5899
▁radius	-11.5899
▁horseradish	-11.5899
▁padded	-11.5899
▁ahh	-11.5899
▁padding	-11.5899
▁strategies	-11.5899
▁verbal	-11.59
▁signature	-11.59
▁crop	-11.59
▁veil	-11.59
▁wattage	-11.59
▁humidity	-11.59
▁synch	-11.59
▁groom	-11.59
▁voltage	-11.59
▁alex	-11.59
▁dix	-11.59
▁terra	-11.59
▁software	-11.5901
▁lapel	-11.5901
indy	-11.5903
▁progression	-11.5903
▁shaping	-11.5903
▁joke	-11.5903
▁electrician	-11.5904
▁dipping	-11.5904
▁employer	-11.5904
uary	-11.5904
▁colon	-11.5904
▁motor	-11.5905
▁winner	-11.5906
▁exception	-11.5906
▁approved	-11.5907
▁lifetime	-11.5908
▁terrible	-11.5908
▁fingerpicking	-11.5909
▁popcorn	-11.5909
▁station	-11.5911
▁relate	-11.5911
▁horribl	-11.5914
lord	-11.5918
orous	-11.5918
▁surge	-11.5922
▁carved	-11.5923
▁nast	-11.5928
▁colorful	-11.5932
▁inspire	-11.5933
▁annual	-11.5933
▁consistently	-11.5936
▁roy	-11.5936
▁rougher	-11.5943
▁cons	-11.5946
▁stra	-11.5957
▁organized	-11.5959
▁gag	-11.5959
▁nav	-11.5965
▁social	-11.5968
▁engaged	-11.5973
▁00	-11.5973
▁belong	-11.5977
▁toast	-11.5988
▁parties	-11.599
0	-11.5993
▁increas	-11.5995
▁distractions	-11.6
stible	-11.6003
io	-11.6012
▁dau	-11.6013
▁waxes	-11.6023
▁articles	-11.6029
▁carrots	-11.6029
▁repetitions	-11.6029
▁secured	-11.6032
▁floating	-11.6042
▁collectibles	-11.6058
▁boring	-11.6059
▁pur	-11.6062
▁lure	-11.6073
▁warmer	-11.6076
▁served	-11.6088
chu	-11.6089
▁upset	-11.6106
▁chase	-11.6121
▁fuse	-11.6125
▁seasoning	-11.6128
▁asana	-11.613
▁li	-11.6141
6	-11.6144
▁detailed	-11.6148
▁led	-11.6149
▁rep	-11.6161
grams	-11.6204
ova	-11.6206
▁avoided	-11.6222
rank	-11.623
▁windy	-11.6249
▁jen	-11.6262
▁earrings	-11.6264
▁regularly	-11.6293
▁operations	-11.6293
cle	-11.6313
logical	-11.632
▁engl	-11.6327
▁cultures	-11.6333
ism	-11.6342
▁sandy	-11.6349
▁modeling	-11.6367
berg	-11.6378
▁stored	-11.6396
▁musical	-11.6397
bu	-11.6447
ppa	-11.6472
ncha	-11.6477
▁crystals	-11.6504
▁straws	-11.6504
▁floats	-11.6508
earned	-11.6514
▁limits	-11.6518
▁painter	-11.6551
▁yo	-11.6556
▁sal	-11.6566
▁stabilize	-11.6601
▁rei	-11.6681
▁component	-11.6751
▁science	-11.6766
phy	-11.6768
▁tact	-11.6788
▁assist	-11.6791
▁300	-11.681
▁pe	-11.6812
▁concentr	-11.6843
▁glide	-11.6845
▁13	-11.6846
▁gan	-11.6875
ttle	-11.692
▁designate	-11.6934
cut	-11.6943
cloth	-11.6949
▁radiat	-11.6951
came	-11.6954
▁balanc	-11.6966
thy	-11.6969
▁mash	-11.6975
▁bab	-11.6999
▁plast	-11.7008
▁motivat	-11.7008
▁detect	-11.7008
▁humid	-11.7009
▁skew	-11.7009
unnel	-11.7009
▁reinforce	-11.7009
▁pigment	-11.701
▁skate	-11.701
▁forgot	-11.701
▁flamingo	-11.701
▁abra	-11.701
▁transparen	-11.701
▁additives	-11.701
▁amateur	-11.701
▁assignment	-11.701
▁caricature	-11.701
▁complain	-11.701
▁correspond	-11.701
▁creativity	-11.701
▁crook	-11.701
▁exchange	-11.701
▁facility	-11.701
▁feminine	-11.701
▁foul	-11.701
▁goddess	-11.701
▁headshot	-11.701
▁identical	-11.701
▁isolation	-11.701
▁journey	-11.701
▁limb	-11.701
▁manipulate	-11.701
▁meringue	-11.701
▁mosaic	-11.701
▁neglect	-11.701
▁paintbrush	-11.701
▁patricia	-11.701
▁phobia	-11.701
▁picnic	-11.701
▁practical	-11.701
▁pregnant	-11.701
▁quad	-11.701
▁regulate	-11.701
▁respirator	-11.701
▁smear	-11.701
▁smudge	-11.701
▁syrup	-11.701
▁technolog	-11.701
▁terminology	-11.701
▁tutor	-11.701
▁vinyl	-11.701
▁death	-11.701
▁remedy	-11.701
▁detach	-11.701
▁disorder	-11.701
▁ordinar	-11.701
▁creek	-11.701
▁automo	-11.701
▁kryny	-11.701
▁taut	-11.701
▁broadcast	-11.701
▁smile	-11.701
▁elongat	-11.701
▁underarm	-11.701
▁organism	-11.701
▁decay	-11.701
▁descent	-11.701
▁confusing	-11.701
▁urina	-11.701
▁argument	-11.701
▁creep	-11.701
zza	-11.701
▁gut	-11.701
▁sandpaper	-11.701
▁horn	-11.701
▁prescribe	-11.7011
▁thailand	-11.7011
uffin	-11.7011
▁feedback	-11.7011
▁trav	-11.7011
▁groin	-11.7011
▁affiliation	-11.7011
▁pathway	-11.7011
▁skinny	-11.7011
iday	-11.7011
▁rail	-11.7011
▁touchdown	-11.7012
▁subjective	-11.7012
▁cupcake	-11.7012
▁cubes	-11.7013
▁replacement	-11.7013
▁prone	-11.7014
fill	-11.7015
▁drawback	-11.7016
▁weaken	-11.7016
▁spoken	-11.7017
▁stapler	-11.7017
▁headstand	-11.7018
▁indian	-11.7018
▁gul	-11.7019
▁milli	-11.7019
▁collector	-11.7021
▁layout	-11.7021
▁continuously	-11.7021
▁allowance	-11.7022
▁dominan	-11.7022
▁distracted	-11.7022
▁invest	-11.7024
mmy	-11.7024
▁intelligent	-11.7026
▁carton	-11.7027
▁manufactured	-11.7028
▁stylist	-11.7029
▁math	-11.703
▁explosi	-11.7031
▁functional	-11.7032
▁grate	-11.7037
essica	-11.7042
▁dresses	-11.7042
▁integrated	-11.7043
lywood	-11.7045
rical	-11.7046
▁surprised	-11.7046
▁defined	-11.7048
▁sad	-11.7051
▁stitches	-11.7052
▁accumulat	-11.7053
▁quietly	-11.7053
▁bon	-11.7053
▁supplements	-11.7059
▁looser	-11.706
▁informative	-11.7063
▁emp	-11.7064
▁seriously	-11.7067
▁var	-11.7073
start	-11.7074
▁barb	-11.7077
▁chill	-11.7084
▁capitals	-11.7091
▁cran	-11.7092
▁circum	-11.7094
▁cru	-11.7094
rescent	-11.7102
▁toner	-11.7115
▁received	-11.7122
▁insects	-11.7124
▁architectur	-11.7126
▁camp	-11.7129
▁sliced	-11.7154
▁killed	-11.7159
▁separately	-11.7161
▁lightening	-11.7175
▁sixes	-11.7179
▁characteristics	-11.7189
cho	-11.7198
▁crocheting	-11.7214
▁recommendations	-11.7222
▁clumps	-11.7223
▁seek	-11.7238
phon	-11.7242
orize	-11.7247
▁squared	-11.7252
▁photographs	-11.7257
mary	-11.7259
▁packed	-11.7278
▁fashioned	-11.728
▁sciences	-11.7288
icha	-11.7297
▁personalize	-11.7323
▁torn	-11.734
▁festivals	-11.7354
▁dealerships	-11.7354
▁curr	-11.7368
▁riders	-11.7371
▁mudd	-11.7376
▁zo	-11.7399
▁pastr	-11.7406
verse	-11.7421
▁swamps	-11.7421
▁runners	-11.7421
▁lats	-11.746
ory	-11.7473
▁bio	-11.748
ence	-11.749
▁molding	-11.7494
ray	-11.751
▁chipp	-11.7513
▁spike	-11.752
lent	-11.7546
▁nud	-11.7546
▁mur	-11.7591
▁believ	-11.7652
▁replac	-11.7656
za	-11.7704
dden	-11.7736
▁bru	-11.7761
▁strik	-11.7762
▁nu	-11.7765
cla	-11.7779
kh	-11.7793
▁produc	-11.7802
pher	-11.7802
olli	-11.7806
kin	-11.7831
ama	-11.785
▁photograph	-11.789
mph	-11.7985
▁buck	-11.7986
burns	-11.7987
▁supplie	-11.8005
▁pitche	-11.8035
▁digest	-11.8042
▁pant	-11.8044
orn	-11.8045
▁adapt	-11.8064
▁tick	-11.8085
wn	-11.8103
pinning	-11.8115
ugher	-11.813
▁architect	-11.813
▁musc	-11.8156
evil	-11.8169
▁basi	-11.8177
▁sch	-11.818
ford	-11.8194
room	-11.8194
lanc	-11.8195
vice	-11.8196
▁nip	-11.8196
ngle	-11.8197
tangle	-11.8197
▁amaz	-11.8199
dies	-11.8199
pops	-11.8201
like	-11.8206
▁bind	-11.8215
ode	-11.8219
▁charl	-11.8229
▁digit	-11.8231
▁itali	-11.8237
card	-11.8239
▁revers	-11.824
▁disc	-11.8241
mulate	-11.8243
▁confuse	-11.8243
▁suppose	-11.8244
▁junk	-11.8244
▁fib	-11.8246
▁surviv	-11.8246
ghter	-11.8247
▁hunt	-11.8252
▁buff	-11.8253
▁bronze	-11.8256
imple	-11.8257
▁russel	-11.8257
lasses	-11.8257
▁fragran	-11.8258
▁yog	-11.8258
▁sync	-11.8258
▁graphi	-11.8259
▁lab	-11.8259
cycl	-11.826
▁relation	-11.826
▁hawaii	-11.826
▁adventure	-11.826
▁refresh	-11.826
addario	-11.826
propyl	-11.826
rote	-11.826
▁alligator	-11.826
▁antibiotic	-11.826
▁anticipat	-11.826
▁automobile	-11.826
▁backcourt	-11.826
▁blast	-11.826
▁boundaries	-11.826
▁camisole	-11.826
▁chamomile	-11.826
▁colander	-11.826
▁colubridae	-11.826
▁complication	-11.826
▁congesti	-11.826
▁cucumber	-11.826
▁deposit	-11.826
▁descend	-11.826
▁discharge	-11.826
▁distort	-11.826
▁disturb	-11.826
▁doorknob	-11.826
▁duct	-11.826
▁explanat	-11.826
▁footprint	-11.826
▁fuzz	-11.826
▁garnish	-11.826
▁genius	-11.826
▁hallway	-11.826
▁hurry	-11.826
▁input	-11.826
▁intermediate	-11.826
▁keeley	-11.826
▁liqueur	-11.826
▁manifold	-11.826
▁marcel	-11.826
▁monoxide	-11.826
▁obliques	-11.826
▁olympic	-11.826
▁overwhelm	-11.826
▁parasites	-11.826
▁pediatrician	-11.826
▁phrase	-11.826
▁pistol	-11.826
▁pixels	-11.826
▁prominen	-11.826
▁protrude	-11.826
▁puck	-11.826
▁receptacle	-11.826
▁refractometer	-11.826
▁retention	-11.826
▁retouch	-11.826
▁saturn	-11.826
▁scenario	-11.826
▁scrambl	-11.826
▁sludge	-11.826
▁sprocket	-11.826
▁suffer	-11.826
▁summarize	-11.826
▁swivel	-11.826
▁tepee	-11.826
▁tortillas	-11.826
▁treasure	-11.826
▁victim	-11.826
▁wardrobe	-11.826
▁workbench	-11.826
▁claw	-11.826
▁counteract	-11.826
▁kelli	-11.826
▁moderate	-11.826
▁promise	-11.826
▁thief	-11.826
counterclockwise	-11.826
▁acqui	-11.826
▁desert	-11.826
▁mimic	-11.826
▁profit	-11.826
▁rind	-11.826
▁suspen	-11.826
▁advertis	-11.826
▁toxins	-11.826
▁wol	-11.826
▁employee	-11.826
▁nightmare	-11.826
▁piston	-11.826
eaux	-11.826
scope	-11.826
▁crumb	-11.826
▁offstage	-11.826
▁intricate	-11.826
▁substitute	-11.826
▁dragster	-11.826
▁extensive	-11.826
▁confirm	-11.826
▁discipline	-11.826
▁utilit	-11.826
cific	-11.826
▁combining	-11.826
▁blackheads	-11.826
▁fireworks	-11.826
▁carving	-11.826
▁symmetrical	-11.826
▁distille	-11.826
▁knight	-11.826
▁mailbox	-11.826
▁chronicle	-11.826
▁interception	-11.826
aband	-11.826
▁tango	-11.826
▁romantic	-11.826
▁converse	-11.826
restrict	-11.826
▁greenery	-11.826
▁framesi	-11.8261
▁wiring	-11.8261
▁prescription	-11.8261
▁avon	-11.8261
▁kink	-11.8261
▁bann	-11.8261
▁finesse	-11.8261
▁urn	-11.8261
▁qualif	-11.8261
▁elementary	-11.8261
ptical	-11.8261
▁elli	-11.8261
▁delay	-11.8261
▁indent	-11.8261
▁unpack	-11.8261
▁skewers	-11.8261
▁script	-11.8261
▁patrick	-11.8261
▁wiping	-11.8262
▁regrow	-11.8262
▁fragrance	-11.8262
▁scrubbing	-11.8262
▁slash	-11.8262
▁shelves	-11.8262
▁lipslide	-11.8262
▁etch	-11.8262
▁zin	-11.8262
▁optical	-11.8263
▁alarm	-11.8263
▁whiskers	-11.8263
▁excessive	-11.8263
▁haul	-11.8263
▁ramp	-11.8263
▁75	-11.8263
▁dj	-11.8263
▁sunlight	-11.8264
▁eyelashes	-11.8264
▁assure	-11.8264
▁thinne	-11.8264
▁society	-11.8264
▁pageant	-11.8264
▁portable	-11.8265
ponent	-11.8265
▁clar	-11.8265
▁inspection	-11.8265
▁acceptable	-11.8265
▁yardage	-11.8265
rench	-11.8266
▁yeast	-11.8266
jing	-11.8266
▁goalie	-11.8266
▁intent	-11.8266
▁basil	-11.8266
adam	-11.8266
▁eyeball	-11.8266
▁orbital	-11.8266
▁selv	-11.8267
mbled	-11.8269
olic	-11.8269
▁bandage	-11.8269
▁mesh	-11.8269
▁grace	-11.827
▁installation	-11.8271
▁reflector	-11.8271
▁beam	-11.8271
▁someplace	-11.8272
▁explore	-11.8273
mbie	-11.8273
▁beaten	-11.8273
▁bach	-11.8273
▁communicating	-11.8273
▁evaluating	-11.8273
▁copie	-11.8273
▁gal	-11.8274
▁lovers	-11.8275
▁mono	-11.8275
▁conven	-11.8277
rising	-11.8281
▁poorly	-11.8284
▁gesture	-11.8285
▁imper	-11.8286
▁emil	-11.8286
▁panic	-11.8287
▁litera	-11.8288
▁shim	-11.8289
▁lash	-11.8289
tional	-11.8289
▁mist	-11.8289
▁bin	-11.8291
▁heartworm	-11.8293
▁carrie	-11.8296
▁moss	-11.8296
▁hint	-11.8297
flamma	-11.8301
▁pond	-11.8308
▁bunches	-11.831
▁flan	-11.8313
▁stickers	-11.8314
▁clumping	-11.8318
▁published	-11.8319
▁graden	-11.832
ber	-11.8321
▁listener	-11.8322
▁orbit	-11.8322
▁union	-11.8326
▁premi	-11.8329
mulated	-11.8335
▁accurately	-11.8337
▁physically	-11.8339
▁successfully	-11.8341
▁horizontally	-11.8344
▁attacker	-11.8345
▁outlet	-11.8348
▁gobo	-11.8353
▁blown	-11.8359
▁pearling	-11.836
▁craz	-11.8372
▁crosses	-11.8381
▁skyy	-11.8386
▁trimmers	-11.839
▁greet	-11.8391
▁rafting	-11.8395
▁cracked	-11.8402
▁beater	-11.8403
▁wasp	-11.8407
ay	-11.8411
sign	-11.8412
▁soaked	-11.8422
▁cam	-11.8425
▁faucets	-11.8427
bed	-11.8446
▁glid	-11.845
▁ward	-11.8457
▁faults	-11.8464
▁mushrooms	-11.8464
▁richards	-11.8464
▁bitter	-11.8469
▁repaired	-11.8491
▁spen	-11.8495
72	-11.8508
temporar	-11.8523
▁flu	-11.8534
40	-11.8544
▁celebrat	-11.8544
▁flare	-11.8553
▁kayaking	-11.8561
men	-11.8583
luck	-11.8594
▁ware	-11.8595
▁handled	-11.8602
11	-11.861
▁folder	-11.8619
▁pun	-11.8619
▁dim	-11.8621
uk	-11.863
▁saut	-11.8642
▁resistan	-11.8661
▁ev	-11.8692
▁transferr	-11.8711
▁elevate	-11.8721
▁proportional	-11.8738
gu	-11.8757
pto	-11.8787
▁sunda	-11.8807
ina	-11.8826
tar	-11.8839
lower	-11.8901
▁lit	-11.8928
lvin	-11.8946
rinkle	-11.8966
▁riv	-11.8983
▁swa	-11.8999
pical	-11.9003
▁trou	-11.9037
▁prepai	-11.9065
ith	-11.9073
▁distribute	-11.9086
▁chlorin	-11.9162
▁mate	-11.9167
▁pod	-11.9176
▁incorporat	-11.9248
itted	-11.9251
amic	-11.9266
▁collapse	-11.9282
▁passer	-11.9298
▁educat	-11.9318
cial	-11.9326
▁clump	-11.9352
stances	-11.9366
▁clue	-11.9424
▁parrot	-11.9424
▁magazine	-11.9426
▁recommendation	-11.9458
▁instruction	-11.9458
▁32	-11.9473
▁shear	-11.9492
rg	-11.9504
ggle	-11.9509
▁lac	-11.951
shin	-11.9517
ini	-11.9539
▁plea	-11.9542
▁prim	-11.9577
gged	-11.9577
egon	-11.9609
▁imagin	-11.9616
potting	-11.9616
ough	-11.962
▁port	-11.9621
▁compos	-11.9624
watch	-11.9627
made	-11.9629
▁damag	-11.9638
oil	-11.9644
erior	-11.9662
sale	-11.9662
▁bik	-11.9667
dependent	-11.9668
▁describ	-11.9671
▁adequate	-11.9671
▁terribl	-11.9674
▁irri	-11.9676
▁manufacture	-11.9676
▁spoke	-11.9679
▁numb	-11.968
▁cylind	-11.968
▁thru	-11.9683
▁cogniti	-11.9685
▁dispos	-11.9686
▁interact	-11.9686
▁eyelash	-11.9686
▁participa	-11.9687
▁brin	-11.9687
▁possibilit	-11.9687
kay	-11.9687
▁convert	-11.9688
▁fascinat	-11.9688
▁econom	-11.9688
▁prun	-11.9688
▁advise	-11.9688
▁alphabet	-11.9688
▁apparent	-11.9688
▁arrange	-11.9688
▁asleep	-11.9688
▁boulder	-11.9688
▁casino	-11.9688
▁categories	-11.9688
▁cinch	-11.9688
▁condens	-11.9688
▁curriculum	-11.9688
▁defrost	-11.9688
▁density	-11.9688
▁dissolve	-11.9688
▁embroider	-11.9688
▁encounter	-11.9688
▁envelope	-11.9688
▁estimat	-11.9688
▁frustrating	-11.9688
▁garbage	-11.9688
▁hickory	-11.9688
▁hospital	-11.9688
▁illusion	-11.9688
▁imperfection	-11.9688
▁increment	-11.9688
▁kidney	-11.9688
▁ligament	-11.9688
▁marathon	-11.9688
▁merchant	-11.9688
▁murderer	-11.9688
▁praise	-11.9688
▁prayer	-11.9688
▁python	-11.9688
▁skating	-11.9688
▁spatula	-11.9688
▁spirit	-11.9688
▁spool	-11.9688
▁technician	-11.9688
▁threshold	-11.9688
▁triathlon	-11.9688
▁unplug	-11.9688
▁utensils	-11.9688
▁mustard	-11.9688
▁periodically	-11.9688
▁saving	-11.9688
▁scheme	-11.9688
conscious	-11.9689
▁harvest	-11.9689
▁ferment	-11.9689
▁demand	-11.9689
▁applies	-11.9689
▁freedom	-11.9689
▁renovations	-11.9689
▁bulk	-11.9689
▁cider	-11.9689
▁lawyer	-11.9689
aneous	-11.9689
▁inverted	-11.9689
vertebra	-11.9689
▁dictate	-11.9689
▁neely	-11.9689
▁squi	-11.9689
▁aesthetic	-11.9689
▁magnify	-11.9689
azz	-11.9689
▁assigned	-11.9689
▁dehydration	-11.9689
▁shy	-11.9689
▁cash	-11.9689
▁disposition	-11.9689
▁marina	-11.9689
▁liberal	-11.9689
▁froth	-11.9689
▁dash	-11.9689
▁suspect	-11.9689
▁metabolism	-11.9689
▁ruff	-11.9689
▁deny	-11.9689
▁doubt	-11.9689
▁retir	-11.9689
▁sandwich	-11.9689
▁reinforcement	-11.9689
▁constrict	-11.9689
▁gust	-11.9689
▁lee	-11.969
▁cruise	-11.969
▁peas	-11.969
▁federa	-11.969
▁flexors	-11.969
▁recycle	-11.969
▁indeed	-11.969
▁management	-11.969
▁agreement	-11.969
rtment	-11.969
thetic	-11.969
▁chili	-11.969
▁scott	-11.969
▁caul	-11.9691
▁footwear	-11.9691
▁james	-11.9691
▁fairway	-11.9691
▁vein	-11.9691
▁drift	-11.9691
▁saucers	-11.9692
▁unlimited	-11.9692
▁hung	-11.9692
▁hassle	-11.9692
▁effortless	-11.9692
▁objective	-11.9692
▁braking	-11.9692
▁improvement	-11.9693
▁saltwater	-11.9693
▁grasp	-11.9693
▁admit	-11.9693
▁lug	-11.9693
▁brick	-11.9693
▁reserv	-11.9694
▁repaint	-11.9694
▁seaside	-11.9694
▁durability	-11.9694
▁gross	-11.9695
▁plexi	-11.9695
▁unlock	-11.9695
▁tax	-11.9695
▁reform	-11.9695
quo	-11.9696
▁vibrate	-11.9696
▁bland	-11.9697
▁buffer	-11.9698
▁hatch	-11.9699
▁adopt	-11.9699
▁removable	-11.9699
▁branches	-11.97
orge	-11.9701
▁flexion	-11.9701
▁mindful	-11.9701
▁megan	-11.9701
▁discouraged	-11.9703
▁versa	-11.9704
▁presentation	-11.9705
ux	-11.9706
▁farthe	-11.9707
inel	-11.9712
▁signal	-11.9713
▁jamm	-11.9714
etic	-11.9715
▁explod	-11.9715
▁guaranteed	-11.9716
cardi	-11.9719
▁clipped	-11.9721
trum	-11.9721
▁devote	-11.9722
▁duration	-11.9723
▁tasty	-11.9724
▁filtration	-11.9724
onie	-11.9726
▁relie	-11.9726
▁bod	-11.9726
rous	-11.9727
▁strongest	-11.9729
obb	-11.9733
▁misc	-11.9738
▁generate	-11.9741
▁hotel	-11.9741
▁safer	-11.9743
bility	-11.9745
▁juggl	-11.9745
▁asso	-11.9746
▁efficiently	-11.9751
▁vertically	-11.9751
▁restore	-11.9751
▁poly	-11.9754
ester	-11.9758
lame	-11.9758
▁initiati	-11.9765
▁radiate	-11.9767
▁tendon	-11.9768
▁joy	-11.9768
▁aligned	-11.977
▁attain	-11.977
cola	-11.977
▁brighter	-11.9774
▁propa	-11.9785
fro	-11.98
▁tensioner	-11.9801
▁val	-11.9803
▁preserve	-11.9831
ration	-11.9835
▁del	-11.9845
▁driven	-11.985
▁budd	-11.9859
▁matting	-11.9859
ike	-11.9901
▁included	-11.9902
▁tro	-11.9914
▁poster	-11.9962
home	-11.9965
▁yum	-11.9993
▁heavi	-12
▁mart	-12.0001
▁bob	-12.0007
crump	-12.0033
▁remover	-12.0052
▁educate	-12.0071
lette	-12.0075
▁delt	-12.014
enco	-12.0143
ular	-12.0162
▁cra	-12.0165
day	-12.0214
▁printer	-12.0246
▁glaz	-12.0248
limited	-12.0256
spect	-12.0259
▁ru	-12.0262
cky	-12.0338
▁execut	-12.0381
eviate	-12.0411
▁contaminat	-12.0418
string	-12.0423
▁inflate	-12.0486
attended	-12.0532
▁contaminate	-12.0557
apping	-12.0689
ambo	-12.0719
▁rud	-12.0728
▁elevat	-12.0758
▁sander	-12.0784
mission	-12.0805
▁fad	-12.0819
uchi	-12.0835
oven	-12.0856
▁stripe	-12.0898
ngue	-12.0974
caution	-12.099
▁memori	-12.101
▁electr	-12.1021
▁bal	-12.1031
▁lung	-12.1078
▁mushroom	-12.1083
▁richard	-12.1083
igg	-12.1085
▁collectible	-12.1088
▁pelvi	-12.1091
▁enchilada	-12.1091
▁interval	-12.1092
▁resource	-12.1092
▁styl	-12.1099
▁characteristic	-12.1103
omp	-12.1109
▁fault	-12.1149
gun	-12.118
▁carol	-12.1199
▁figur	-12.1205
▁succ	-12.1217
▁35	-12.1228
▁cli	-12.1234
point	-12.1248
mega	-12.126
▁sid	-12.1261
scar	-12.1282
usual	-12.1289
fault	-12.1289
▁lan	-12.1289
production	-12.1291
down	-12.1292
graduat	-12.1293
born	-12.1293
house	-12.1293
copy	-12.1293
fiber	-12.1294
space	-12.1294
fold	-12.1294
rage	-12.1294
spin	-12.1295
box	-12.1296
▁slim	-12.1298
▁curv	-12.1298
▁annu	-12.1301
▁thermo	-12.1312
▁dro	-12.1314
▁defin	-12.1315
bett	-12.1316
▁custom	-12.1317
ointed	-12.1321
▁gestur	-12.1322
▁structur	-12.1322
sci	-12.1323
▁numeric	-12.1324
warm	-12.1325
▁chrom	-12.1325
▁torqu	-12.133
▁encourag	-12.1332
▁lou	-12.1333
▁guid	-12.1334
▁gro	-12.1337
▁circl	-12.1338
▁discourage	-12.1338
▁refine	-12.1338
▁behave	-12.1339
▁constant	-12.1339
lay	-12.1339
▁reflex	-12.134
▁hike	-12.1341
icia	-12.1343
▁histor	-12.1344
▁continuous	-12.1345
▁sui	-12.1346
▁thro	-12.1347
▁conceal	-12.1347
▁india	-12.1349
▁divi	-12.1349
▁vegeta	-12.135
▁bush	-12.1351
scribe	-12.1353
▁avail	-12.1353
▁orient	-12.1353
▁situat	-12.1354
▁interchang	-12.1354
▁jewel	-12.1354
▁exce	-12.1354
▁sculpt	-12.1355
umeric	-12.1355
avior	-12.1355
▁blink	-12.1355
▁brainstorm	-12.1355
▁erupt	-12.1355
▁grappl	-12.1355
▁puppet	-12.1355
▁refinish	-12.1355
▁replenish	-12.1355
▁request	-12.1355
▁ricta	-12.1355
▁unload	-12.1355
scotch	-12.1355
tchen	-12.1355
urethane	-12.1355
▁1997	-12.1355
▁abilities	-12.1355
▁altitude	-12.1355
▁appreciate	-12.1355
▁arizona	-12.1355
▁astrology	-12.1355
▁attitude	-12.1355
▁australia	-12.1355
▁binocular	-12.1355
▁blossom	-12.1355
▁buttonhole	-12.1355
▁cappuccino	-12.1355
▁casual	-12.1355
▁cinema	-12.1355
▁closure	-12.1355
▁coffin	-12.1355
▁configuration	-12.1355
▁confront	-12.1355
▁crocosmia	-12.1355
▁deadbolt	-12.1355
▁dialog	-12.1355
▁diarrhea	-12.1355
▁enforcement	-12.1355
▁entitle	-12.1355
▁etcetera	-12.1355
▁ethnic	-12.1355
▁etouffee	-12.1355
▁extruder	-12.1355
▁february	-12.1355
▁fingerprint	-12.1355
▁firefox	-12.1355
▁fitzpatrick	-12.1355
▁follicle	-12.1355
▁hoof	-12.1355
▁illegal	-12.1355
▁imbalance	-12.1355
▁integrity	-12.1355
▁intertwine	-12.1355
▁intimidating	-12.1355
▁invisible	-12.1355
▁lubricant	-12.1355
▁macrobiotic	-12.1355
▁margarine	-12.1355
▁monopoly	-12.1355
▁northwest	-12.1355
▁overpower	-12.1355
▁oxidize	-12.1355
▁pediatrics	-12.1355
▁peppermint	-12.1355
▁perspective	-12.1355
▁piranha	-12.1355
▁preferably	-12.1355
▁pregnancy	-12.1355
▁president	-12.1355
▁privacy	-12.1355
▁pursue	-12.1355
▁qualifications	-12.1355
▁raccoon	-12.1355
▁shoelace	-12.1355
▁shrunken	-12.1355
▁sidewall	-12.1355
▁squeamish	-12.1355
▁struts	-12.1355
▁substance	-12.1355
▁surcingle	-12.1355
▁swoop	-12.1355
▁therapies	-12.1355
▁trample	-12.1355
▁trunk	-12.1355
▁tuft	-12.1355
▁tulip	-12.1355
▁twenties	-12.1355
▁walnut	-12.1355
▁advocat	-12.1355
▁cartoon	-12.1355
▁dairy	-12.1355
▁euro	-12.1355
▁export	-12.1355
▁fidget	-12.1355
▁married	-12.1355
▁mobber	-12.1355
▁quantit	-12.1355
▁stich	-12.1355
▁venue	-12.1355
▁wrestl	-12.1355
▁adhere	-12.1355
▁chow	-12.1355
▁flee	-12.1355
▁luke	-12.1355
▁retrieve	-12.1355
▁yell	-12.1355
filament	-12.1355
▁biography	-12.1355
▁reheat	-12.1355
▁unstable	-12.1355
▁iodize	-12.1355
▁reputa	-12.1355
▁shingle	-12.1355
▁buddhism	-12.1355
▁drown	-12.1355
▁feces	-12.1355
▁ineffective	-12.1355
▁pacing	-12.1355
▁tournament	-12.1355
▁allergen	-12.1355
▁cornbread	-12.1355
▁happie	-12.1355
▁polymer	-12.1355
▁deflat	-12.1355
▁sniff	-12.1355
▁infra	-12.1355
▁foc	-12.1355
▁skillet	-12.1356
▁warranties	-12.1356
humming	-12.1356
▁fried	-12.1356
▁011	-12.1356
▁ventilat	-12.1356
konasana	-12.1356
▁holga	-12.1356
ylic	-12.1356
▁tannin	-12.1356
▁dishwash	-12.1356
▁lick	-12.1356
▁vocaliz	-12.1356
▁depression	-12.1356
▁instant	-12.1356
▁fudge	-12.1356
▁oops	-12.1356
▁198	-12.1356
edited	-12.1356
▁forgotten	-12.1356
▁dandy	-12.1356
▁wakeboard	-12.1356
agger	-12.1356
occa	-12.1356
▁bruise	-12.1356
▁decaffeinated	-12.1356
▁investment	-12.1356
▁peonies	-12.1356
▁toxic	-12.1356
▁99	-12.1356
▁mommy	-12.1356
▁colb	-12.1356
▁subway	-12.1356
▁clark	-12.1356
▁snip	-12.1356
▁pastern	-12.1357
▁progressive	-12.1357
metics	-12.1357
▁steak	-12.1357
▁assess	-12.1357
▁nozzle	-12.1357
▁bold	-12.1357
▁poop	-12.1357
▁vacat	-12.1357
leopa	-12.1357
▁daddy	-12.1357
▁broker	-12.1357
▁darkroom	-12.1357
▁defuse	-12.1357
▁foolish	-12.1357
▁spit	-12.1358
▁spout	-12.1358
▁cancer	-12.1358
▁scarves	-12.1358
iffin	-12.1358
▁arterial	-12.1358
▁undone	-12.1358
▁sanit	-12.1358
▁rasp	-12.1358
▁cabin	-12.1358
bby	-12.1359
▁genre	-12.1359
▁handyman	-12.1359
▁aromatic	-12.1359
▁stripped	-12.1359
▁flock	-12.1359
▁inher	-12.136
▁bushes	-12.136
▁uncle	-12.136
▁template	-12.136
▁moisten	-12.136
▁jose	-12.136
▁magnified	-12.136
▁robin	-12.136
▁walt	-12.1361
▁implementation	-12.1361
▁calligrapher	-12.1361
▁kidding	-12.1362
plugged	-12.1362
terate	-12.1363
▁booth	-12.1364
rift	-12.1364
▁apron	-12.1364
▁secretion	-12.1364
▁sailor	-12.1364
▁granular	-12.1364
▁casing	-12.1364
▁scientist	-12.1365
▁parry	-12.1365
▁braise	-12.1366
▁unweight	-12.1367
▁hunter	-12.1367
▁stubb	-12.1367
▁fid	-12.1367
▁gau	-12.1368
▁nutrition	-12.1368
▁playback	-12.1368
▁neon	-12.1369
▁expose	-12.1369
▁holl	-12.137
▁pith	-12.137
▁ingest	-12.137
▁effectiveness	-12.1371
▁contraction	-12.1371
bster	-12.1371
▁electricity	-12.1371
ionate	-12.1372
▁geometr	-12.1372
▁behaved	-12.1373
▁beforehand	-12.1374
▁negotiating	-12.1374
▁pleasant	-12.1374
▁evaluate	-12.1374
▁guill	-12.1375
▁roman	-12.1375
▁breakup	-12.1376
▁bible	-12.1376
▁retract	-12.1379
▁junkie	-12.1379
▁booster	-12.138
▁relev	-12.138
▁kerry	-12.1384
uzzle	-12.1384
▁insulated	-12.1385
▁correction	-12.1386
▁fuss	-12.1386
nancy	-12.1388
▁accordingly	-12.1389
addle	-12.1389
▁variable	-12.1389
cide	-12.139
▁potter	-12.1392
vian	-12.1392
▁scraper	-12.1392
cepti	-12.1393
▁isolated	-12.1395
▁distracting	-12.1398
▁bog	-12.1398
plies	-12.14
▁lubricat	-12.1402
▁darken	-12.1402
▁usual	-12.1406
▁burd	-12.1406
ially	-12.1408
ently	-12.141
▁barne	-12.141
▁usage	-12.141
▁lessen	-12.1411
▁recovery	-12.1411
▁backpacker	-12.1412
▁enjoyable	-12.1413
▁tangled	-12.1415
▁brewer	-12.1417
▁backfield	-12.1418
▁stranded	-12.1419
▁coal	-12.1419
▁belay	-12.1421
▁gran	-12.1421
▁reliev	-12.1426
▁pete	-12.1428
ige	-12.1431
▁travers	-12.1433
▁signaling	-12.1434
▁climber	-12.1436
▁handful	-12.144
ately	-12.1442
▁protector	-12.1443
▁massa	-12.1444
▁tann	-12.1445
▁combo	-12.1445
▁viru	-12.1445
omaha	-12.1448
▁whitener	-12.1449
▁fell	-12.1449
▁crawler	-12.1452
villa	-12.1455
▁entre	-12.1458
▁stacked	-12.1464
▁bowler	-12.1469
▁lind	-12.1478
adonna	-12.1483
▁obstruct	-12.1494
▁dancer	-12.1496
▁switches	-12.1513
▁controller	-12.1514
minate	-12.1517
▁pleat	-12.1517
mber	-12.1528
▁paddler	-12.1547
ib	-12.1554
oyl	-12.1575
olin	-12.1585
ano	-12.1608
▁kerr	-12.1612
itud	-12.1629
lav	-12.1654
▁raci	-12.1676
dio	-12.1722
▁cautio	-12.1733
▁cultur	-12.1796
gate	-12.1821
▁arrive	-12.1823
▁gree	-12.1838
▁patien	-12.1888
▁protecti	-12.1937
▁stabiliz	-12.1963
ego	-12.1967
▁siz	-12.2027
ram	-12.205
claim	-12.206
ravel	-12.2088
aren	-12.2093
▁baker	-12.2153
▁legg	-12.2199
▁cub	-12.2229
▁compromis	-12.2392
gging	-12.2414
▁resolve	-12.2416
topi	-12.2447
▁terr	-12.2459
▁capi	-12.2465
▁woke	-12.2543
▁slo	-12.2564
▁snapp	-12.2567
▁mobil	-12.2581
▁fog	-12.2586
▁logic	-12.2629
mmuni	-12.2678
▁martin	-12.272
▁cooperati	-12.2731
▁preservati	-12.2747
▁arriv	-12.2813
▁attend	-12.299
urb	-12.2995
lov	-12.3018
ssip	-12.3076
▁faucet	-12.3083
▁repetition	-12.3087
▁carrot	-12.3087
onic	-12.309
▁mineral	-12.3092
▁article	-12.3094
▁origin	-12.3106
iva	-12.3113
▁unnecessar	-12.3119
astic	-12.3138
ographic	-12.3142
▁era	-12.3154
▁shi	-12.3173
essive	-12.3187
▁formula	-12.3192
▁dar	-12.3209
▁tickl	-12.3216
ickers	-12.3231
▁analy	-12.3246
liz	-12.3285
piece	-12.329
▁din	-12.3291
grow	-12.3291
stairs	-12.3292
▁refu	-12.3293
foot	-12.3294
▁tradition	-12.3301
▁secur	-12.3304
▁cul	-12.3305
undo	-12.3308
still	-12.3308
voca	-12.331
▁motorcycl	-12.331
igno	-12.3313
▁zoo	-12.3317
sheet	-12.3318
▁tackl	-12.3321
▁slee	-12.3323
▁boost	-12.3325
eased	-12.3329
▁nation	-12.3334
ken	-12.3334
▁frequenc	-12.3335
▁opportunit	-12.3337
▁approve	-12.3338
ood	-12.334
▁yea	-12.334
▁definite	-12.3341
▁multipl	-12.3341
our	-12.3344
▁greas	-12.3345
issi	-12.3345
▁remind	-12.3346
ption	-12.3346
▁blu	-12.335
▁intestin	-12.3351
▁viol	-12.3351
scription	-12.3352
▁affiliat	-12.3353
emerge	-12.3354
▁chronic	-12.3354
▁argu	-12.3355
clutter	-12.3355
tensive	-12.3355
▁disapp	-12.3355
▁dupli	-12.3355
▁exacerbat	-12.3355
▁shannon	-12.3355
responsibilities	-12.3355
▁acetone	-12.3355
▁advisable	-12.3355
▁apprais	-12.3355
▁artifact	-12.3355
▁blaze	-12.3355
▁bouquet	-12.3355
▁canada	-12.3355
▁capabilities	-12.3355
▁carniv	-12.3355
▁cheerlead	-12.3355
▁chestnut	-12.3355
▁climax	-12.3355
▁conclusion	-12.3355
▁detriment	-12.3355
▁discomfort	-12.3355
▁dispenser	-12.3355
▁elaborate	-12.3355
▁fajita	-12.3355
▁fencing	-12.3355
▁forefinger	-12.3355
▁fridge	-12.3355
▁frustrated	-12.3355
▁grime	-12.3355
▁grommet	-12.3355
▁handkerchief	-12.3355
▁hunch	-12.3355
▁inflammation	-12.3355
▁iridescen	-12.3355
▁library	-12.3355
▁margin	-12.3355
▁mathematic	-12.3355
▁miserable	-12.3355
▁mosquito	-12.3355
▁oasis	-12.3355
▁ointment	-12.3355
▁peralite	-12.3355
▁peripheral	-12.3355
▁petunia	-12.3355
▁placket	-12.3355
▁pouch	-12.3355
▁predictable	-12.3355
▁quadrup	-12.3355
▁reattach	-12.3355
▁revolv	-12.3355
▁sanitizer	-12.3355
▁scheduling	-12.3355
▁seatbelt	-12.3355
▁shrink	-12.3355
▁silence	-12.3355
▁telegraph	-12.3355
▁workshop	-12.3355
▁capelet	-12.3355
▁diagram	-12.3355
▁editing	-12.3355
▁interpret	-12.3355
▁microphone	-12.3355
▁nourish	-12.3355
▁preheat	-12.3355
▁shank	-12.3355
▁shortstop	-12.3355
▁ultra	-12.3355
▁watercolor	-12.3355
▁abrasive	-12.3355
▁goofy	-12.3355
▁gymnastics	-12.3355
▁helmet	-12.3355
▁leap	-12.3355
▁elliot	-12.3355
▁limon	-12.3355
▁palpat	-12.3355
▁among	-12.3355
▁sexual	-12.3355
lerate	-12.3355
▁chopsticks	-12.3355
▁dorsi	-12.3355
arda	-12.3355
▁accentuate	-12.3355
▁slippery	-12.3355
▁oval	-12.3355
▁agitat	-12.3355
▁manipulati	-12.3355
▁illuminat	-12.3355
▁cluttered	-12.3355
▁panda	-12.3355
▁shri	-12.3355
▁penny	-12.3356
▁peck	-12.3356
▁workstation	-12.3356
acci	-12.3356
▁navasana	-12.3356
▁judgment	-12.3356
▁puppies	-12.3356
▁trauma	-12.3356
scilla	-12.3356
▁spell	-12.3356
▁sacrum	-12.3356
▁liking	-12.3356
▁antibodies	-12.3356
▁surfboard	-12.3356
▁modifie	-12.3356
▁swallow	-12.3356
▁1800	-12.3356
▁draft	-12.3356
▁distinctive	-12.3356
▁dumb	-12.3356
▁confinement	-12.3357
▁stern	-12.3357
▁habitat	-12.3357
▁precaution	-12.3357
▁stylus	-12.3357
▁hyper	-12.3357
▁description	-12.3357
▁punish	-12.3357
▁nowhere	-12.3357
▁expertise	-12.3357
▁heave	-12.3357
▁monst	-12.3357
▁drunk	-12.3357
▁streamline	-12.3357
▁overlapping	-12.3357
▁talent	-12.3358
▁pleasing	-12.3358
▁ribbing	-12.3358
▁mitt	-12.3358
▁tech	-12.3358
▁reservation	-12.3358
▁pris	-12.3358
▁interaction	-12.3358
dual	-12.3358
▁fanc	-12.3358
liance	-12.3359
▁juli	-12.3359
▁motivation	-12.3359
▁bunnies	-12.3359
▁linda	-12.3359
poxy	-12.3359
▁intestines	-12.336
▁cognition	-12.336
safa	-12.336
▁brother	-12.336
▁linger	-12.336
▁gargle	-12.336
▁nig	-12.3361
▁mediated	-12.3361
▁restriction	-12.3361
▁mcc	-12.3361
▁ripping	-12.3361
▁brig	-12.3361
▁deficiency	-12.3362
▁penalt	-12.3362
▁furry	-12.3362
▁undercut	-12.3362
▁thrust	-12.3363
▁uv	-12.3363
▁traction	-12.3363
▁coarseness	-12.3363
cient	-12.3363
▁universe	-12.3363
▁transmit	-12.3363
rine	-12.3364
▁twin	-12.3364
chro	-12.3364
▁symbolic	-12.3364
▁illness	-12.3364
▁seg	-12.3365
▁peon	-12.3365
▁semina	-12.3365
▁flavorful	-12.3366
▁accountant	-12.3366
▁maple	-12.3367
▁gunk	-12.3367
▁explorer	-12.3367
▁kindling	-12.3368
▁funky	-12.3369
▁unevenly	-12.3369
▁industries	-12.337
▁hiker	-12.3375
▁frequency	-12.3375
▁payment	-12.3378
▁heavily	-12.3379
▁ballet	-12.338
▁adequately	-12.3381
▁unto	-12.3384
▁bald	-12.3384
▁buddy	-12.3385
▁concer	-12.3391
▁brace	-12.3391
immers	-12.3392
novation	-12.3394
▁kil	-12.3408
▁parka	-12.3413
▁lobe	-12.3415
▁drier	-12.3418
▁masher	-12.3421
▁flak	-12.3424
▁morse	-12.3427
▁rung	-12.3434
▁medal	-12.3444
▁shinn	-12.3451
finite	-12.3452
▁hue	-12.3482
clemen	-12.349
hine	-12.3527
finance	-12.3542
▁veg	-12.3549
▁erase	-12.3565
nnier	-12.359
oline	-12.3606
aque	-12.3622
rolling	-12.3636
uff	-12.3638
▁voi	-12.3661
▁hugg	-12.3726
▁presen	-12.3755
▁preserv	-12.3788
arbo	-12.3831
fusion	-12.3948
donna	-12.3976
▁cooper	-12.4021
▁submi	-12.4058
▁buddh	-12.4104
▁recogniz	-12.4115
▁impressi	-12.4121
uchin	-12.417
▁pati	-12.417
▁sli	-12.4187
▁maximiz	-12.4218
▁lathe	-12.4262
rough	-12.4298
uddle	-12.4305
▁manu	-12.4396
▁octo	-12.4466
rude	-12.4469
rik	-12.4531
▁teache	-12.4579
pack	-12.4592
bury	-12.4665
hen	-12.4682
▁chok	-12.4712
▁russia	-12.4762
itz	-12.4876
▁rins	-12.4878
obic	-12.4935
idi	-12.4958
umph	-12.502
ddha	-12.5099
▁rig	-12.5165
▁polit	-12.5178
dressed	-12.5204
ptic	-12.5225
disc	-12.5272
cating	-12.5369
▁pursua	-12.5431
▁scru	-12.5443
▁craw	-12.5513
▁trimmer	-12.5584
▁insect	-12.5586
▁emotion	-12.5588
▁distraction	-12.5589
▁scallop	-12.559
▁stair	-12.559
▁folk	-12.5592
▁hamstring	-12.5594
▁symptom	-12.5595
iving	-12.5605
▁spli	-12.5621
▁tai	-12.5622
ebri	-12.5632
▁raisin	-12.5696
position	-12.5715
▁folia	-12.5726
ucky	-12.574
formative	-12.5746
▁patti	-12.5746
amine	-12.5746
break	-12.5752
ification	-12.5761
▁distract	-12.5762
place	-12.5764
active	-12.5768
▁translat	-12.5774
cam	-12.5777
▁sigh	-12.5781
lash	-12.5788
filtration	-12.579
raft	-12.579
graden	-12.579
science	-12.5791
▁pierc	-12.5792
vision	-12.5792
grav	-12.5793
surge	-12.5793
wash	-12.5793
behavior	-12.5793
choke	-12.5793
bulbs	-12.5794
brew	-12.5794
familiar	-12.5794
shake	-12.5794
tube	-12.5794
suit	-12.5794
▁ceil	-12.5794
market	-12.5794
cast	-12.5794
▁inspir	-12.5794
mother	-12.5795
dating	-12.5795
alone	-12.5795
clear	-12.5796
lunge	-12.5796
tail	-12.5798
life	-12.5799
cook	-12.5799
▁jam	-12.5806
vention	-12.5818
▁judg	-12.5823
▁nurs	-12.5829
▁chocolat	-12.5831
▁surfac	-12.5832
▁woo	-12.5833
▁capacit	-12.5836
▁uneven	-12.5837
▁imfor	-12.5839
▁vibrat	-12.5839
▁immediate	-12.5839
▁colo	-12.5839
▁sai	-12.584
▁tumble	-12.584
▁extrem	-12.5841
ermo	-12.5843
▁plex	-12.5844
noli	-12.5845
▁nutritio	-12.5845
▁remin	-12.5846
▁comput	-12.5846
rling	-12.5849
▁retail	-12.5849
▁porta	-12.585
▁shelv	-12.5851
vator	-12.5852
▁hydra	-12.5852
▁construct	-12.5853
caffeinated	-12.5854
meg	-12.5854
umpi	-12.5854
▁disinfect	-12.5855
▁differ	-12.5855
▁sacr	-12.5855
▁dehydrate	-12.5855
whit	-12.5855
▁plie	-12.5855
▁uti	-12.5855
▁automat	-12.5855
disciplin	-12.5855
ebra	-12.5855
▁stampin	-12.5855
pronounce	-12.5855
commod	-12.5855
cumulati	-12.5855
limina	-12.5855
▁chick	-12.5855
▁bargain	-12.5855
▁buzz	-12.5855
▁frown	-12.5855
▁plow	-12.5855
▁sprawl	-12.5855
▁struggl	-12.5855
ashab	-12.5855
hua	-12.5855
nkets	-12.5855
ontraindications	-12.5855
ouettes	-12.5855
responsive	-12.5855
satisfaction	-12.5855
sequent	-12.5855
utto	-12.5855
▁360	-12.5855
▁abnormal	-12.5855
▁academic	-12.5855
▁academy	-12.5855
▁acclimated	-12.5855
▁agility	-12.5855
▁airbrush	-12.5855
▁albin	-12.5855
▁allergy	-12.5855
▁arpeggiate	-12.5855
▁astronomy	-12.5855
▁atmosphere	-12.5855
▁backflip	-12.5855
▁bathtub	-12.5855
▁belvedere	-12.5855
▁berkeley	-12.5855
▁biomechanic	-12.5855
▁boyfriend	-12.5855
▁carotenoid	-12.5855
▁championship	-12.5855
▁choreograph	-12.5855
▁cigarettes	-12.5855
▁civiliz	-12.5855
▁clothespin	-12.5855
▁cochlea	-12.5855
▁collag	-12.5855
▁conformational	-12.5855
▁connelly	-12.5855
▁constraints	-12.5855
▁cyanotype	-12.5855
▁database	-12.5855
▁defects	-12.5855
▁diagnostic	-12.5855
▁diploma	-12.5855
▁dread	-12.5855
▁edition	-12.5855
▁editor	-12.5855
▁elephant	-12.5855
▁enlargement	-12.5855
▁enthusias	-12.5855
▁ergot	-12.5855
▁evacuati	-12.5855
▁evidence	-12.5855
▁facilitate	-12.5855
▁fahrenheit	-12.5855
▁feisty	-12.5855
▁firewall	-12.5855
▁fixtures	-12.5855
▁flimsy	-12.5855
▁futura	-12.5855
▁gallery	-12.5855
▁genetic	-12.5855
▁germinate	-12.5855
▁girdle	-12.5855
▁girlfriend	-12.5855
▁glitch	-12.5855
▁handwriting	-12.5855
▁heroscape	-12.5855
▁horsehair	-12.5855
▁identity	-12.5855
▁intrinsically	-12.5855
▁inventory	-12.5855
▁kernel	-12.5855
▁kohlrabi	-12.5855
▁lanka	-12.5855
▁lecture	-12.5855
▁meerkat	-12.5855
▁mexico	-12.5855
▁military	-12.5855
▁munro	-12.5855
▁nonirritating	-12.5855
▁overturn	-12.5855
▁pajama	-12.5855
▁parakeet	-12.5855
▁pennsylvania	-12.5855
▁physics	-12.5855
▁physio	-12.5855
▁pizzazz	-12.5855
▁poutier	-12.5855
▁predator	-12.5855
▁principal	-12.5855
▁quadricep	-12.5855
▁quaker	-12.5855
▁reception	-12.5855
▁refracto	-12.5855
▁refrigerate	-12.5855
▁repertoire	-12.5855
▁repetitive	-12.5855
▁revised	-12.5855
▁sansevieria	-12.5855
▁scapula	-12.5855
▁scavenge	-12.5855
▁schnapps	-12.5855
▁shovel	-12.5855
▁shroud	-12.5855
▁slumped	-12.5855
▁snail	-12.5855
▁sneezing	-12.5855
▁sommelier	-12.5855
▁sparring	-12.5855
▁spongy	-12.5855
▁stadium	-12.5855
▁steffi	-12.5855
▁stockbroker	-12.5855
▁submissive	-12.5855
▁substrate	-12.5855
▁surgical	-12.5855
▁sushi	-12.5855
▁symphony	-12.5855
▁thirsty	-12.5855
▁tiffany	-12.5855
▁toothpick	-12.5855
▁tragic	-12.5855
▁trapezi	-12.5855
▁troubleshooting	-12.5855
▁turbine	-12.5855
▁turtleneck	-12.5855
▁vibran	-12.5855
▁vicinity	-12.5855
▁victorian	-12.5855
▁vivi	-12.5855
▁whirl	-12.5855
▁whirlpool	-12.5855
▁whistle	-12.5855
▁whitley	-12.5855
563	-12.5855
ndaws	-12.5855
▁bruising	-12.5855
▁bureau	-12.5855
▁cruising	-12.5855
▁disrupti	-12.5855
▁gomukasan	-12.5855
▁insulin	-12.5855
▁laminati	-12.5855
▁luxur	-12.5855
▁mould	-12.5855
▁overlook	-12.5855
▁statistic	-12.5855
▁citr	-12.5855
▁corona	-12.5855
▁crayon	-12.5855
▁deriv	-12.5855
▁desktop	-12.5855
▁ebay	-12.5855
▁mcat	-12.5855
▁rudder	-12.5855
▁trellis	-12.5855
▁zig	-12.5855
metric	-12.5855
▁intro	-12.5855
▁windmill	-12.5855
▁attire	-12.5855
▁crumple	-12.5855
▁extent	-12.5855
▁flier	-12.5855
▁storytell	-12.5855
recipi	-12.5855
▁flamingosis	-12.5855
▁glor	-12.5855
▁orchid	-12.5855
neti	-12.5855
▁rico	-12.5855
▁rehearsals	-12.5855
▁serum	-12.5855
▁exfoliant	-12.5855
▁referee	-12.5855
▁specialist	-12.5855
demic	-12.5855
▁lisp	-12.5855
▁shimano	-12.5855
▁arrest	-12.5855
▁retrea	-12.5855
▁dispers	-12.5855
▁volca	-12.5855
▁alexson	-12.5855
▁pigtail	-12.5855
▁degas	-12.5855
▁sabre	-12.5855
▁slam	-12.5855
▁vegetation	-12.5855
▁sanct	-12.5855
▁bomb	-12.5855
▁noisy	-12.5855
ometer	-12.5856
▁pedest	-12.5856
▁pressurize	-12.5856
▁vending	-12.5856
▁belgium	-12.5856
▁capsul	-12.5856
▁eyelets	-12.5856
▁glands	-12.5856
▁blunt	-12.5856
nique	-12.5856
▁fraud	-12.5856
ddar	-12.5856
▁antholog	-12.5856
▁employment	-12.5856
spid	-12.5856
▁implant	-12.5856
tinker	-12.5856
▁vinosity	-12.5856
ecuti	-12.5856
▁overheat	-12.5856
▁scab	-12.5856
▁portability	-12.5856
▁thorn	-12.5856
▁detr	-12.5856
▁leach	-12.5856
diction	-12.5856
▁counselor	-12.5856
▁negotiation	-12.5856
▁enrich	-12.5856
▁socialize	-12.5856
sition	-12.5856
▁dame	-12.5856
▁prettie	-12.5856
▁chaff	-12.5856
▁interactive	-12.5856
▁myra	-12.5856
▁attenti	-12.5856
▁observ	-12.5856
culti	-12.5857
▁refuse	-12.5857
▁peat	-12.5857
▁ariel	-12.5857
▁separation	-12.5857
visa	-12.5857
▁solu	-12.5857
▁mohee	-12.5857
▁macro	-12.5857
▁gouge	-12.5857
▁corp	-12.5857
▁supervision	-12.5857
▁undershirt	-12.5857
▁flapp	-12.5857
▁mound	-12.5857
▁chiropractic	-12.5857
▁scarring	-12.5857
bec	-12.5857
▁interchangeabl	-12.5857
▁igniter	-12.5857
▁fetch	-12.5857
▁camas	-12.5857
avage	-12.5857
▁dramatically	-12.5857
orrow	-12.5857
▁establishment	-12.5858
q	-14.413
